{
  "version": "1.0",
  "truncation": {
    "direction": "Right",
    "max_length": 512,
    "strategy": "LongestFirst",
    "stride": 0
  },
  "padding": null,
  "added_tokens": [
    {
      "id": 0,
      "content": "[PAD]",
      "single_word": false,
      "lstrip": false,
      "rstrip": false,
      "normalized": false,
      "special": true
    },
    {
      "id": 1,
      "content": "[UNK]",
      "single_word": false,
      "lstrip": false,
      "rstrip": false,
      "normalized": false,
      "special": true
    },
    {
      "id": 2,
      "content": "[CLS]",
      "single_word": false,
      "lstrip": false,
      "rstrip": false,
      "normalized": false,
      "special": true
    },
    {
      "id": 3,
      "content": "[SEP]",
      "single_word": false,
      "lstrip": false,
      "rstrip": false,
      "normalized": false,
      "special": true
    },
    {
      "id": 4,
      "content": "[MASK]",
      "single_word": false,
      "lstrip": false,
      "rstrip": false,
      "normalized": false,
      "special": true
    }
  ],
  "normalizer": {
    "type": "BertNormalizer",
    "clean_text": true,
    "handle_chinese_chars": true,
    "strip_accents": null,
    "lowercase": true
  },
  "pre_tokenizer": {
    "type": "BertPreTokenizer"
  },
  "post_processor": {
    "type": "TemplateProcessing",
    "single": [
      {
        "SpecialToken": {
          "id": "[CLS]",
          "type_id": 0
        }
      },
      {
        "Sequence": {
          "id": "A",
          "type_id": 0
        }
      },
      {
        "SpecialToken": {
          "id": "[SEP]",
          "type_id": 0
        }
      }
    ],
    "pair": [
      {
        "SpecialToken": {
          "id": "[CLS]",
          "type_id": 0
        }
      },
      {
        "Sequence": {
          "id": "A",
          "type_id": 0
        }
      },
      {
        "SpecialToken": {
          "id": "[SEP]",
          "type_id": 0
        }
      },
      {
        "Sequence": {
          "id": "B",
          "type_id": 1
        }
      },
      {
        "SpecialToken": {
          "id": "[SEP]",
          "type_id": 1
        }
      }
    ],
    "special_tokens": {
      "[CLS]": {
        "id": "[CLS]",
        "ids": [
          2
        ],
        "tokens": [
          "[CLS]"
        ]
      },
      "[SEP]": {
        "id": "[SEP]",
        "ids": [
          3
        ],
        "tokens": [
          "[SEP]"
        ]
      }
    }
  },
  "decoder": {
    "type": "WordPiece",
    "prefix": "##",
    "cleanup": true
  },
  "model": {
    "type": "WordPiece",
    "unk_token": "[UNK]",
    "continuing_subword_prefix": "##",
    "max_input_chars_per_word": 100,
    "vocab": {
      "[PAD]": 0,
      "[UNK]": 1,
      "[CLS]": 2,
      "[SEP]": 3,
      "[MASK]": 4,
      "!": 5,
      "\"": 6,
      "#": 7,
      "$": 8,
      "%": 9,
      "&": 10,
      "'": 11,
      "(": 12,
      ")": 13,
      "*": 14,
      "+": 15,
      ",": 16,
      "-": 17,
      ".": 18,
      "/": 19,
      "0": 20,
      "1": 21,
      "2": 22,
      "3": 23,
      "4": 24,
      "5": 25,
      "6": 26,
      "7": 27,
      "8": 28,
      "9": 29,
      ":": 30,
      ";": 31,
      "<": 32,
      "=": 33,
      ">": 34,
      "?": 35,
      "@": 36,
      "[": 37,
      "\\": 38,
      "]": 39,
      "^": 40,
      "_": 41,
      "`": 42,
      "a": 43,
      "b": 44,
      "c": 45,
      "d": 46,
      "e": 47,
      "f": 48,
      "g": 49,
      "h": 50,
      "i": 51,
      "j": 52,
      "k": 53,
      "l": 54,
      "m": 55,
      "n": 56,
      "o": 57,
      "p": 58,
      "q": 59,
      "r": 60,
      "s": 61,
      "t": 62,
      "u": 63,
      "v": 64,
      "w": 65,
      "x": 66,
      "y": 67,
      "z": 68,
      "{": 69,
      "|": 70,
      "}": 71,
      "~": 72,
      "¡": 73,
      "¢": 74,
      "£": 75,
      "¥": 76,
      "¦": 77,
      "§": 78,
      "¨": 79,
      "©": 80,
      "«": 81,
      "®": 82,
      "¯": 83,
      "°": 84,
      "±": 85,
      "²": 86,
      "³": 87,
      "´": 88,
      "µ": 89,
      "·": 90,
      "¸": 91,
      "»": 92,
      "½": 93,
      "¿": 94,
      "×": 95,
      "ß": 96,
      "æ": 97,
      "÷": 98,
      "ø": 99,
      "đ": 100,
      "ı": 101,
      "ł": 102,
      "ə": 103,
      "˜": 104,
      "ͼ": 105,
      "α": 106,
      "β": 107,
      "γ": 108,
      "δ": 109,
      "ε": 110,
      "η": 111,
      "θ": 112,
      "ι": 113,
      "κ": 114,
      "λ": 115,
      "μ": 116,
      "ν": 117,
      "ο": 118,
      "π": 119,
      "ρ": 120,
      "ς": 121,
      "σ": 122,
      "τ": 123,
      "υ": 124,
      "φ": 125,
      "χ": 126,
      "ω": 127,
      "а": 128,
      "б": 129,
      "в": 130,
      "г": 131,
      "д": 132,
      "е": 133,
      "ж": 134,
      "з": 135,
      "и": 136,
      "к": 137,
      "л": 138,
      "м": 139,
      "н": 140,
      "о": 141,
      "п": 142,
      "р": 143,
      "с": 144,
      "т": 145,
      "у": 146,
      "ф": 147,
      "х": 148,
      "ц": 149,
      "ч": 150,
      "ш": 151,
      "щ": 152,
      "ъ": 153,
      "ы": 154,
      "ь": 155,
      "э": 156,
      "ю": 157,
      "я": 158,
      "і": 159,
      "һ": 160,
      "ա": 161,
      "ե": 162,
      "ի": 163,
      "խ": 164,
      "հ": 165,
      "ձ": 166,
      "ն": 167,
      "ո": 168,
      "ս": 169,
      "տ": 170,
      "ր": 171,
      "ք": 172,
      "־": 173,
      "׀": 174,
      "׃": 175,
      "א": 176,
      "ב": 177,
      "ג": 178,
      "ד": 179,
      "ה": 180,
      "ו": 181,
      "ז": 182,
      "ח": 183,
      "ט": 184,
      "י": 185,
      "ך": 186,
      "כ": 187,
      "ל": 188,
      "ם": 189,
      "מ": 190,
      "ן": 191,
      "נ": 192,
      "ס": 193,
      "ע": 194,
      "ף": 195,
      "פ": 196,
      "ץ": 197,
      "צ": 198,
      "ק": 199,
      "ר": 200,
      "ש": 201,
      "ת": 202,
      "װ": 203,
      "ײ": 204,
      "׳": 205,
      "״": 206,
      "،": 207,
      "؟": 208,
      "ء": 209,
      "ا": 210,
      "ب": 211,
      "ة": 212,
      "ت": 213,
      "ث": 214,
      "ج": 215,
      "ح": 216,
      "خ": 217,
      "د": 218,
      "ذ": 219,
      "ر": 220,
      "ز": 221,
      "س": 222,
      "ش": 223,
      "ص": 224,
      "ض": 225,
      "ط": 226,
      "ظ": 227,
      "ع": 228,
      "غ": 229,
      "ـ": 230,
      "ف": 231,
      "ق": 232,
      "ك": 233,
      "ل": 234,
      "م": 235,
      "ن": 236,
      "ه": 237,
      "و": 238,
      "ى": 239,
      "ي": 240,
      "٠": 241,
      "پ": 242,
      "چ": 243,
      "ک": 244,
      "گ": 245,
      "ی": 246,
      "आ": 247,
      "इ": 248,
      "क": 249,
      "ग": 250,
      "च": 251,
      "ज": 252,
      "ट": 253,
      "ड": 254,
      "ण": 255,
      "त": 256,
      "द": 257,
      "ध": 258,
      "न": 259,
      "प": 260,
      "ब": 261,
      "भ": 262,
      "म": 263,
      "य": 264,
      "र": 265,
      "ल": 266,
      "व": 267,
      "श": 268,
      "स": 269,
      "ह": 270,
      "ा": 271,
      "ि": 272,
      "ी": 273,
      "ो": 274,
      "ন": 275,
      "ব": 276,
      "া": 277,
      "ি": 278,
      "ে": 279,
      "ા": 280,
      "ର": 281,
      "ರ": 282,
      "ര": 283,
      "ก": 284,
      "ค": 285,
      "ง": 286,
      "ด": 287,
      "ต": 288,
      "น": 289,
      "บ": 290,
      "พ": 291,
      "ม": 292,
      "ย": 293,
      "ร": 294,
      "ล": 295,
      "ว": 296,
      "ส": 297,
      "อ": 298,
      "า": 299,
      "เ": 300,
      "ა": 301,
      "ბ": 302,
      "ე": 303,
      "ი": 304,
      "ლ": 305,
      "მ": 306,
      "ნ": 307,
      "ო": 308,
      "რ": 309,
      "ს": 310,
      "ღ": 311,
      "ძ": 312,
      "ᄀ": 313,
      "ᄂ": 314,
      "ᄃ": 315,
      "ᄅ": 316,
      "ᄆ": 317,
      "ᄇ": 318,
      "ᄉ": 319,
      "ᄋ": 320,
      "ᄌ": 321,
      "ᄎ": 322,
      "ᄐ": 323,
      "ᄑ": 324,
      "ᄒ": 325,
      "ᅡ": 326,
      "ᅢ": 327,
      "ᅥ": 328,
      "ᅦ": 329,
      "ᅧ": 330,
      "ᅩ": 331,
      "ᅪ": 332,
      "ᅭ": 333,
      "ᅮ": 334,
      "ᅳ": 335,
      "ᅵ": 336,
      "ᆨ": 337,
      "ᆫ": 338,
      "ᆯ": 339,
      "ᆷ": 340,
      "ᆸ": 341,
      "ᆺ": 342,
      "ᆻ": 343,
      "ᆼ": 344,
      "ᆽ": 345,
      "ᇂ": 346,
      "ᴰ": 347,
      "ᴴ": 348,
      "‑": 349,
      "–": 350,
      "—": 351,
      "―": 352,
      "‘": 353,
      "’": 354,
      "‚": 355,
      "“": 356,
      "”": 357,
      "„": 358,
      "‟": 359,
      "•": 360,
      "…": 361,
      "′": 362,
      "″": 363,
      "›": 364,
      "‼": 365,
      "‿": 366,
      "⁉": 367,
      "⁰": 368,
      "⁻": 369,
      "₪": 370,
      "€": 371,
      "⃣": 372,
      "™": 373,
      "←": 374,
      "↑": 375,
      "→": 376,
      "↓": 377,
      "↔": 378,
      "↩": 379,
      "⇦": 380,
      "⇨": 381,
      "−": 382,
      "⌚": 383,
      "⏰": 384,
      "⏳": 385,
      "─": 386,
      "┈": 387,
      "█": 388,
      "▓": 389,
      "■": 390,
      "▪": 391,
      "▲": 392,
      "▶": 393,
      "▼": 394,
      "◄": 395,
      "●": 396,
      "◠": 397,
      "☀": 398,
      "☁": 399,
      "★": 400,
      "☆": 401,
      "☋": 402,
      "☎": 403,
      "☔": 404,
      "☕": 405,
      "☝": 406,
      "☠": 407,
      "☹": 408,
      "☺": 409,
      "♀": 410,
      "♂": 411,
      "♡": 412,
      "♥": 413,
      "♦": 414,
      "♪": 415,
      "♫": 416,
      "♬": 417,
      "⚘": 418,
      "⚠": 419,
      "⚡": 420,
      "⚪": 421,
      "⚫": 422,
      "⚽": 423,
      "⛄": 424,
      "⛅": 425,
      "⛔": 426,
      "✂": 427,
      "✅": 428,
      "✈": 429,
      "✊": 430,
      "✋": 431,
      "✌": 432,
      "✍": 433,
      "✏": 434,
      "✔": 435,
      "✖": 436,
      "✡": 437,
      "✨": 438,
      "✿": 439,
      "❄": 440,
      "❌": 441,
      "❓": 442,
      "❔": 443,
      "❕": 444,
      "❗": 445,
      "❣": 446,
      "❤": 447,
      "➖": 448,
      "⠀": 449,
      "⬅": 450,
      "⬇": 451,
      "⭐": 452,
      "、": 453,
      "。": 454,
      "》": 455,
      "「": 456,
      "」": 457,
      "【": 458,
      "】": 459,
      "あ": 460,
      "い": 461,
      "う": 462,
      "え": 463,
      "お": 464,
      "か": 465,
      "き": 466,
      "く": 467,
      "け": 468,
      "こ": 469,
      "さ": 470,
      "し": 471,
      "す": 472,
      "せ": 473,
      "そ": 474,
      "た": 475,
      "っ": 476,
      "て": 477,
      "と": 478,
      "な": 479,
      "に": 480,
      "の": 481,
      "は": 482,
      "ま": 483,
      "み": 484,
      "め": 485,
      "も": 486,
      "や": 487,
      "よ": 488,
      "ら": 489,
      "り": 490,
      "る": 491,
      "れ": 492,
      "わ": 493,
      "を": 494,
      "ん": 495,
      "ア": 496,
      "ィ": 497,
      "イ": 498,
      "ウ": 499,
      "エ": 500,
      "オ": 501,
      "カ": 502,
      "ク": 503,
      "コ": 504,
      "サ": 505,
      "シ": 506,
      "ス": 507,
      "セ": 508,
      "タ": 509,
      "チ": 510,
      "ッ": 511,
      "ツ": 512,
      "テ": 513,
      "ト": 514,
      "ナ": 515,
      "ニ": 516,
      "ハ": 517,
      "ヒ": 518,
      "フ": 519,
      "ヘ": 520,
      "ホ": 521,
      "マ": 522,
      "ム": 523,
      "メ": 524,
      "ュ": 525,
      "ラ": 526,
      "リ": 527,
      "ル": 528,
      "レ": 529,
      "ロ": 530,
      "ン": 531,
      "・": 532,
      "ー": 533,
      "ヽ": 534,
      "ㅤ": 535,
      "一": 536,
      "上": 537,
      "下": 538,
      "不": 539,
      "世": 540,
      "个": 541,
      "中": 542,
      "么": 543,
      "乐": 544,
      "了": 545,
      "争": 546,
      "事": 547,
      "人": 548,
      "以": 549,
      "们": 550,
      "会": 551,
      "体": 552,
      "作": 553,
      "你": 554,
      "來": 555,
      "們": 556,
      "停": 557,
      "全": 558,
      "公": 559,
      "共": 560,
      "出": 561,
      "分": 562,
      "動": 563,
      "博": 564,
      "友": 565,
      "发": 566,
      "和": 567,
      "国": 568,
      "图": 569,
      "在": 570,
      "地": 571,
      "场": 572,
      "城": 573,
      "多": 574,
      "大": 575,
      "天": 576,
      "奖": 577,
      "女": 578,
      "好": 579,
      "娱": 580,
      "婚": 581,
      "子": 582,
      "安": 583,
      "家": 584,
      "實": 585,
      "市": 586,
      "平": 587,
      "年": 588,
      "度": 589,
      "开": 590,
      "彩": 591,
      "心": 592,
      "性": 593,
      "愛": 594,
      "我": 595,
      "战": 596,
      "戦": 597,
      "戰": 598,
      "手": 599,
      "拉": 600,
      "新": 601,
      "方": 602,
      "日": 603,
      "早": 604,
      "时": 605,
      "是": 606,
      "晚": 607,
      "最": 608,
      "月": 609,
      "有": 610,
      "本": 611,
      "来": 612,
      "模": 613,
      "止": 614,
      "殺": 615,
      "民": 616,
      "水": 617,
      "没": 618,
      "法": 619,
      "爭": 620,
      "片": 621,
      "物": 622,
      "特": 623,
      "理": 624,
      "生": 625,
      "用": 626,
      "的": 627,
      "真": 628,
      "神": 629,
      "票": 630,
      "私": 631,
      "系": 632,
      "結": 633,
      "网": 634,
      "美": 635,
      "者": 636,
      "胆": 637,
      "自": 638,
      "虐": 639,
      "行": 640,
      "西": 641,
      "要": 642,
      "話": 643,
      "語": 644,
      "說": 645,
      "讓": 646,
      "让": 647,
      "论": 648,
      "谢": 649,
      "跟": 650,
      "部": 651,
      "里": 652,
      "金": 653,
      "集": 654,
      "靴": 655,
      "韓": 656,
      "高": 657,
      "ﬠ": 658,
      "！": 659,
      "（": 660,
      "）": 661,
      "，": 662,
      "／": 663,
      "：": 664,
      "？": 665,
      "＿": 666,
      "｀": 667,
      "～": 668,
      "･": 669,
      "￣": 670,
      "￼": 671,
      "🆗": 672,
      "🇦": 673,
      "🇧": 674,
      "🇨": 675,
      "🇪": 676,
      "🇬": 677,
      "🇮": 678,
      "🇱": 679,
      "🇳": 680,
      "🇵": 681,
      "🇷": 682,
      "🇸": 683,
      "🇹": 684,
      "🇺": 685,
      "🌈": 686,
      "🌊": 687,
      "🌍": 688,
      "🌙": 689,
      "🌚": 690,
      "🌝": 691,
      "🌞": 692,
      "🌟": 693,
      "🌴": 694,
      "🌵": 695,
      "🌷": 696,
      "🌸": 697,
      "🌹": 698,
      "🌺": 699,
      "🌻": 700,
      "🌼": 701,
      "🌾": 702,
      "🌿": 703,
      "🍀": 704,
      "🍁": 705,
      "🍂": 706,
      "🍃": 707,
      "🍆": 708,
      "🍇": 709,
      "🍉": 710,
      "🍌": 711,
      "🍍": 712,
      "🍎": 713,
      "🍏": 714,
      "🍒": 715,
      "🍓": 716,
      "🍔": 717,
      "🍕": 718,
      "🍖": 719,
      "🍗": 720,
      "🍝": 721,
      "🍞": 722,
      "🍟": 723,
      "🍢": 724,
      "🍦": 725,
      "🍧": 726,
      "🍩": 727,
      "🍪": 728,
      "🍫": 729,
      "🍬": 730,
      "🍭": 731,
      "🍯": 732,
      "🍰": 733,
      "🍴": 734,
      "🍷": 735,
      "🍸": 736,
      "🍹": 737,
      "🍺": 738,
      "🍻": 739,
      "🍾": 740,
      "🎀": 741,
      "🎁": 742,
      "🎂": 743,
      "🎆": 744,
      "🎇": 745,
      "🎈": 746,
      "🎉": 747,
      "🎊": 748,
      "🎋": 749,
      "🎍": 750,
      "🎤": 751,
      "🎥": 752,
      "🎧": 753,
      "🎨": 754,
      "🎬": 755,
      "🎭": 756,
      "🎯": 757,
      "🎵": 758,
      "🎶": 759,
      "🎼": 760,
      "🏀": 761,
      "🏁": 762,
      "🏃": 763,
      "🏄": 764,
      "🏆": 765,
      "🏊": 766,
      "🏡": 767,
      "🏻": 768,
      "🏼": 769,
      "🏽": 770,
      "🏾": 771,
      "🏿": 772,
      "🐄": 773,
      "🐒": 774,
      "🐕": 775,
      "🐚": 776,
      "🐝": 777,
      "🐣": 778,
      "🐧": 779,
      "🐶": 780,
      "🐷": 781,
      "🐻": 782,
      "🐼": 783,
      "🐾": 784,
      "👀": 785,
      "👄": 786,
      "👅": 787,
      "👆": 788,
      "👇": 789,
      "👈": 790,
      "👉": 791,
      "👊": 792,
      "👋": 793,
      "👌": 794,
      "👍": 795,
      "👎": 796,
      "👏": 797,
      "👐": 798,
      "👑": 799,
      "👓": 800,
      "👗": 801,
      "👙": 802,
      "👛": 803,
      "👟": 804,
      "👠": 805,
      "👣": 806,
      "👥": 807,
      "👦": 808,
      "👧": 809,
      "👨": 810,
      "👩": 811,
      "👪": 812,
      "👫": 813,
      "👬": 814,
      "👭": 815,
      "👮": 816,
      "👯": 817,
      "👰": 818,
      "👳": 819,
      "👴": 820,
      "👵": 821,
      "👶": 822,
      "👸": 823,
      "👹": 824,
      "👺": 825,
      "👻": 826,
      "👼": 827,
      "👽": 828,
      "👿": 829,
      "💀": 830,
      "💁": 831,
      "💃": 832,
      "💄": 833,
      "💅": 834,
      "💆": 835,
      "💇": 836,
      "💉": 837,
      "💊": 838,
      "💋": 839,
      "💌": 840,
      "💍": 841,
      "💎": 842,
      "💏": 843,
      "💐": 844,
      "💑": 845,
      "💓": 846,
      "💔": 847,
      "💕": 848,
      "💖": 849,
      "💗": 850,
      "💘": 851,
      "💙": 852,
      "💚": 853,
      "💛": 854,
      "💜": 855,
      "💝": 856,
      "💞": 857,
      "💟": 858,
      "💢": 859,
      "💣": 860,
      "💤": 861,
      "💥": 862,
      "💦": 863,
      "💧": 864,
      "💨": 865,
      "💩": 866,
      "💪": 867,
      "💫": 868,
      "💬": 869,
      "💭": 870,
      "💯": 871,
      "💰": 872,
      "💸": 873,
      "📈": 874,
      "📖": 875,
      "📚": 876,
      "📝": 877,
      "📞": 878,
      "📢": 879,
      "📣": 880,
      "📱": 881,
      "📲": 882,
      "📷": 883,
      "📺": 884,
      "🔃": 885,
      "🔄": 886,
      "🔊": 887,
      "🔕": 888,
      "🔚": 889,
      "🔜": 890,
      "🔝": 891,
      "🔞": 892,
      "🔥": 893,
      "🔪": 894,
      "🔫": 895,
      "🔯": 896,
      "🔴": 897,
      "🔵": 898,
      "🕎": 899,
      "🕯": 900,
      "🖐": 901,
      "🖕": 902,
      "🖖": 903,
      "🖤": 904,
      "😀": 905,
      "😁": 906,
      "😂": 907,
      "😃": 908,
      "😄": 909,
      "😅": 910,
      "😆": 911,
      "😇": 912,
      "😈": 913,
      "😉": 914,
      "😊": 915,
      "😋": 916,
      "😌": 917,
      "😍": 918,
      "😎": 919,
      "😏": 920,
      "😐": 921,
      "😑": 922,
      "😒": 923,
      "😓": 924,
      "😔": 925,
      "😕": 926,
      "😖": 927,
      "😗": 928,
      "😘": 929,
      "😙": 930,
      "😚": 931,
      "😛": 932,
      "😜": 933,
      "😝": 934,
      "😞": 935,
      "😟": 936,
      "😠": 937,
      "😡": 938,
      "😢": 939,
      "😣": 940,
      "😤": 941,
      "😥": 942,
      "😦": 943,
      "😧": 944,
      "😨": 945,
      "😩": 946,
      "😪": 947,
      "😫": 948,
      "😬": 949,
      "😭": 950,
      "😮": 951,
      "😯": 952,
      "😰": 953,
      "😱": 954,
      "😲": 955,
      "😳": 956,
      "😴": 957,
      "😵": 958,
      "😶": 959,
      "😷": 960,
      "😸": 961,
      "😹": 962,
      "😻": 963,
      "😼": 964,
      "😽": 965,
      "😾": 966,
      "😿": 967,
      "🙀": 968,
      "🙁": 969,
      "🙂": 970,
      "🙃": 971,
      "🙄": 972,
      "🙅": 973,
      "🙆": 974,
      "🙇": 975,
      "🙈": 976,
      "🙉": 977,
      "🙊": 978,
      "🙋": 979,
      "🙌": 980,
      "🙍": 981,
      "🙏": 982,
      "🚀": 983,
      "🚗": 984,
      "🚘": 985,
      "🚨": 986,
      "🚫": 987,
      "🚬": 988,
      "🚶": 989,
      "🚿": 990,
      "🛍": 991,
      "🤐": 992,
      "🤒": 993,
      "🤓": 994,
      "🤔": 995,
      "🤕": 996,
      "🤗": 997,
      "🤘": 998,
      "🤡": 999,
      "🤣": 1000,
      "🤦": 1001,
      "🤷": 1002,
      "🦄": 1003,
      "🦋": 1004,
      "##מ": 1005,
      "##פ": 1006,
      "##ש": 1007,
      "##י": 1008,
      "##ל": 1009,
      "##ו": 1010,
      "##ת": 1011,
      "##ם": 1012,
      "##ק": 1013,
      "##ר": 1014,
      "##🍹": 1015,
      "##ה": 1016,
      "##a": 1017,
      "##r": 1018,
      "##n": 1019,
      "##e": 1020,
      "##y": 1021,
      "##s": 1022,
      "##п": 1023,
      "##л": 1024,
      "##а": 1025,
      "##т": 1026,
      "##и": 1027,
      "##ь": 1028,
      "##t": 1029,
      "##z": 1030,
      "##v": 1031,
      "##ג": 1032,
      "##א": 1033,
      "##נ": 1034,
      "##😃": 1035,
      "##צ": 1036,
      "##ב": 1037,
      "##ח": 1038,
      "##ד": 1039,
      "##u": 1040,
      "##b": 1041,
      "##o": 1042,
      "##h": 1043,
      "##ט": 1044,
      "##ץ": 1045,
      "##ס": 1046,
      "##ע": 1047,
      "##´": 1048,
      "##ן": 1049,
      "##w": 1050,
      "##l": 1051,
      "##i": 1052,
      "##c": 1053,
      "##d": 1054,
      "##😄": 1055,
      "##😍": 1056,
      "##💦": 1057,
      "##🚿": 1058,
      "##x": 1059,
      "##д": 1060,
      "##н": 1061,
      "##о": 1062,
      "##г": 1063,
      "##ך": 1064,
      "##m": 1065,
      "##כ": 1066,
      "##f": 1067,
      "##😆": 1068,
      "##🦄": 1069,
      "##💰": 1070,
      "##👉": 1071,
      "##🌹": 1072,
      "##🔥": 1073,
      "##🦋": 1074,
      "##ז": 1075,
      "##8": 1076,
      "##9": 1077,
      "##ч": 1078,
      "##😇": 1079,
      "##💭": 1080,
      "##💑": 1081,
      "##👄": 1082,
      "##😴": 1083,
      "##p": 1084,
      "##g": 1085,
      "##1": 1086,
      "##5": 1087,
      "##k": 1088,
      "##2": 1089,
      "##7": 1090,
      "##0": 1091,
      "##6": 1092,
      "##😣": 1093,
      "##😒": 1094,
      "##к": 1095,
      "##р": 1096,
      "##ף": 1097,
      "##j": 1098,
      "##💪": 1099,
      "##🏽": 1100,
      "##👊": 1101,
      "##🏼": 1102,
      "##👌": 1103,
      "##😻": 1104,
      "##😤": 1105,
      "##⚫": 1106,
      "##🔴": 1107,
      "##™": 1108,
      "##😂": 1109,
      "##👼": 1110,
      "##4": 1111,
      "##м": 1112,
      "##ы": 1113,
      "##🎉": 1114,
      "##😱": 1115,
      "##😯": 1116,
      "##🖕": 1117,
      "##⁻": 1118,
      "##😿": 1119,
      "##у": 1120,
      "##в": 1121,
      "##с": 1122,
      "##ю": 1123,
      "##щ": 1124,
      "##е": 1125,
      "##ͼ": 1126,
      "##🎶": 1127,
      "##ა": 1128,
      "##ი": 1129,
      "##✌": 1130,
      "##😛": 1131,
      "##💗": 1132,
      "##💋": 1133,
      "##🍓": 1134,
      "##😋": 1135,
      "##😎": 1136,
      "##😏": 1137,
      "##ł": 1138,
      "##3": 1139,
      "##😅": 1140,
      "##❤": 1141,
      "##ن": 1142,
      "##ا": 1143,
      "##س": 1144,
      "##ه": 1145,
      "##♥": 1146,
      "##ع": 1147,
      "##و": 1148,
      "##ت": 1149,
      "##🤕": 1150,
      "##🚗": 1151,
      "##ز": 1152,
      "##ر": 1153,
      "##ي": 1154,
      "##ب": 1155,
      "##👍": 1156,
      "##💛": 1157,
      "##🎥": 1158,
      "##☕": 1159,
      "##🎈": 1160,
      "##👏": 1161,
      "##б": 1162,
      "##ل": 1163,
      "##ش": 1164,
      "##🏻": 1165,
      "##😩": 1166,
      "##✔": 1167,
      "##🎼": 1168,
      "##🎧": 1169,
      "##🎤": 1170,
      "##😰": 1171,
      "##👯": 1172,
      "##💕": 1173,
      "##❕": 1174,
      "##✋": 1175,
      "##😕": 1176,
      "##😪": 1177,
      "##🔞": 1178,
      "##😊": 1179,
      "##я": 1180,
      "##х": 1181,
      "##😫": 1182,
      "##😭": 1183,
      "##😷": 1184,
      "##😌": 1185,
      "##م": 1186,
      "##ﬠ": 1187,
      "##ж": 1188,
      "##😞": 1189,
      "##ш": 1190,
      "##😑": 1191,
      "##😓": 1192,
      "##😔": 1193,
      "##😦": 1194,
      "##☹": 1195,
      "##🙁": 1196,
      "##😟": 1197,
      "##😜": 1198,
      "##☠": 1199,
      "##👀": 1200,
      "##ц": 1201,
      "##🤒": 1202,
      "##😝": 1203,
      "##😖": 1204,
      "##💏": 1205,
      "##✊": 1206,
      "##😚": 1207,
      "##ق": 1208,
      "##×": 1209,
      "##🏾": 1210,
      "##🔯": 1211,
      "##🔫": 1212,
      "##🎊": 1213,
      "##😁": 1214,
      "##🎁": 1215,
      "##🎋": 1216,
      "##レ": 1217,
      "##タ": 1218,
      "##ン": 1219,
      "##～": 1220,
      "##ア": 1221,
      "##フ": 1222,
      "##💔": 1223,
      "##ط": 1224,
      "##🍁": 1225,
      "##🙌": 1226,
      "##💉": 1227,
      "##👧": 1228,
      "##💜": 1229,
      "##ک": 1230,
      "##🍯": 1231,
      "##د": 1232,
      "##ح": 1233,
      "##ة": 1234,
      "##🙏": 1235,
      "##😘": 1236,
      "##👗": 1237,
      "##👠": 1238,
      "##💄": 1239,
      "##💸": 1240,
      "##👓": 1241,
      "##🤗": 1242,
      "##✍": 1243,
      "##👋": 1244,
      "##😡": 1245,
      "##😙": 1246,
      "##👎": 1247,
      "##💃": 1248,
      "##☔": 1249,
      "##😬": 1250,
      "##💀": 1251,
      "##👪": 1252,
      "##🏃": 1253,
      "##🍷": 1254,
      "##🍸": 1255,
      "##🍺": 1256,
      "##😀": 1257,
      "##💙": 1258,
      "##😥": 1259,
      "##χ": 1260,
      "##👅": 1261,
      "##🎀": 1262,
      "##💁": 1263,
      "##ᅡ": 1264,
      "##ᄋ": 1265,
      "##💘": 1266,
      "##q": 1267,
      "##💎": 1268,
      "##れ": 1269,
      "##る": 1270,
      "##か": 1271,
      "##💢": 1272,
      "##😳": 1273,
      "##🌼": 1274,
      "##з": 1275,
      "##😢": 1276,
      "##💚": 1277,
      "##ج": 1278,
      "##🙃": 1279,
      "##ى": 1280,
      "##λ": 1281,
      "##α": 1282,
      "##ι": 1283,
      "##ο": 1284,
      "##υ": 1285,
      "##ρ": 1286,
      "##ك": 1287,
      "##🙊": 1288,
      "##💓": 1289,
      "##❌": 1290,
      "##π": 1291,
      "##😵": 1292,
      "##🍟": 1293,
      "##👫": 1294,
      "##👈": 1295,
      "##☺": 1296,
      "##😉": 1297,
      "##🍌": 1298,
      "##ᆯ": 1299,
      "##ᄒ": 1300,
      "##ᅩ": 1301,
      "##ᄂ": 1302,
      "##ᅧ": 1303,
      "##ᆫ": 1304,
      "##さ": 1305,
      "##🙈": 1306,
      "##☀": 1307,
      "##ф": 1308,
      "##ो": 1309,
      "##ल": 1310,
      "##😼": 1311,
      "##🍫": 1312,
      "##त": 1313,
      "##र": 1314,
      "##ा": 1315,
      "##き": 1316,
      "##よ": 1317,
      "##う": 1318,
      "##に": 1319,
      "##な": 1320,
      "##っ": 1321,
      "##て": 1322,
      "##け": 1323,
      "##と": 1324,
      "##や": 1325,
      "##ん": 1326,
      "##✈": 1327,
      "##ذ": 1328,
      "##💍": 1329,
      "##👭": 1330,
      "##🏿": 1331,
      "##🐶": 1332,
      "##⚽": 1333,
      "##غ": 1334,
      "##ض": 1335,
      "##ی": 1336,
      "##💝": 1337,
      "##🎆": 1338,
      "##🏊": 1339,
      "##👙": 1340,
      "##😽": 1341,
      "##©": 1342,
      "##💅": 1343,
      "##🔚": 1344,
      "##һ": 1345,
      "##±": 1346,
      "##😮": 1347,
      "##😈": 1348,
      "##🍻": 1349,
      "##🇱": 1350,
      "##💖": 1351,
      "##✅": 1352,
      "##🍾": 1353,
      "##🌟": 1354,
      "##ᄇ": 1355,
      "##ᅳ": 1356,
      "##も": 1357,
      "##の": 1358,
      "##😠": 1359,
      "##🌵": 1360,
      "##💞": 1361,
      "##ـ": 1362,
      "##❗": 1363,
      "##ล": 1364,
      "##ง": 1365,
      "##บ": 1366,
      "##ร": 1367,
      "##า": 1368,
      "##ค": 1369,
      "##ด": 1370,
      "##น": 1371,
      "##เ": 1372,
      "##ย": 1373,
      "##🎬": 1374,
      "##ν": 1375,
      "##τ": 1376,
      "##👿": 1377,
      "##ف": 1378,
      "##🔝": 1379,
      "##⭐": 1380,
      "##👑": 1381,
      "##®": 1382,
      "##🎂": 1383,
      "##🍉": 1384,
      "##💥": 1385,
      "##🌊": 1386,
      "##🌴": 1387,
      "##ナ": 1388,
      "##リ": 1389,
      "##ス": 1390,
      "##ト": 1391,
      "##✖": 1392,
      "##😨": 1393,
      "##ص": 1394,
      "##☁": 1395,
      "##⛅": 1396,
      "##ω": 1397,
      "##ホ": 1398,
      "##ー": 1399,
      "##ル": 1400,
      "##テ": 1401,
      "##ィ": 1402,
      "##ク": 1403,
      "##📢": 1404,
      "##🙂": 1405,
      "##🙅": 1406,
      "##🎵": 1407,
      "##ন": 1408,
      "##ে": 1409,
      "##া": 1410,
      "##°": 1411,
      "##ᆨ": 1412,
      "##🙋": 1413,
      "##ᅵ": 1414,
      "##ᄅ": 1415,
      "##ᅮ": 1416,
      "##і": 1417,
      "##た": 1418,
      "##コ": 1419,
      "##ラ": 1420,
      "##द": 1421,
      "##ी": 1422,
      "##€": 1423,
      "##🎨": 1424,
      "##ء": 1425,
      "##🤐": 1426,
      "##ε": 1427,
      "##η": 1428,
      "##ς": 1429,
      "##ბ": 1430,
      "##მ": 1431,
      "##ე": 1432,
      "##ლ": 1433,
      "##💤": 1434,
      "##😐": 1435,
      "##ø": 1436,
      "##æ": 1437,
      "##ß": 1438,
      "##😲": 1439,
      "##💫": 1440,
      "##⚘": 1441,
      "##👐": 1442,
      "##₪": 1443,
      "##は": 1444,
      "##ײ": 1445,
      "##ᄀ": 1446,
      "##ᄉ": 1447,
      "##ᄐ": 1448,
      "##🤔": 1449,
      "##い": 1450,
      "##ヘ": 1451,
      "##お": 1452,
      "##り": 1453,
      "##👆": 1454,
      "##🍎": 1455,
      "##🎇": 1456,
      "##🇮": 1457,
      "##🇷": 1458,
      "##❓": 1459,
      "##み": 1460,
      "##あ": 1461,
      "##🙇": 1462,
      "##🔊": 1463,
      "##し": 1464,
      "##ま": 1465,
      "##め": 1466,
      "##ı": 1467,
      "##❔": 1468,
      "##ム": 1469,
      "##ら": 1470,
      "##イ": 1471,
      "##💌": 1472,
      "##す": 1473,
      "##ก": 1474,
      "##ม": 1475,
      "##🐕": 1476,
      "##⃣": 1477,
      "##🖐": 1478,
      "##🕎": 1479,
      "##✡": 1480,
      "##←": 1481,
      "##μ": 1482,
      "##κ": 1483,
      "##🎯": 1484,
      "##👇": 1485,
      "##🌿": 1486,
      "##😸": 1487,
      "##ث": 1488,
      "##👳": 1489,
      "##⚡": 1490,
      "##ə": 1491,
      "##⏰": 1492,
      "##💐": 1493,
      "##🌞": 1494,
      "##☝": 1495,
      "##⚪": 1496,
      "##🍏": 1497,
      "##ウ": 1498,
      "##💟": 1499,
      "##🤣": 1500,
      "##🌝": 1501,
      "##🌚": 1502,
      "##😹": 1503,
      "##カ": 1504,
      "##ロ": 1505,
      "##を": 1506,
      "##👻": 1507,
      "##☋": 1508,
      "##｀": 1509,
      "##¢": 1510,
      "##❣": 1511,
      "##β": 1512,
      "##ᄌ": 1513,
      "##ᆼ": 1514,
      "##ᅥ": 1515,
      "##ᆸ": 1516,
      "##🤦": 1517,
      "##♀": 1518,
      "##🙄": 1519,
      "##💇": 1520,
      "##こ": 1521,
      "##👣": 1522,
      "##🙉": 1523,
      "##🌻": 1524,
      "##σ": 1525,
      "##−": 1526,
      "##👬": 1527,
      "##ハ": 1528,
      "##🖤": 1529,
      "##🍂": 1530,
      "##💣": 1531,
      "##🔪": 1532,
      "##📖": 1533,
      "##🙍": 1534,
      "##³": 1535,
      "##स": 1536,
      "##न": 1537,
      "##✨": 1538,
      "##🌙": 1539,
      "##🍢": 1540,
      "##ા": 1541,
      "##🇺": 1542,
      "##🇸": 1543,
      "##🌸": 1544,
      "##🌺": 1545,
      "##¨": 1546,
      "##🌷": 1547,
      "##👩": 1548,
      "##👸": 1549,
      "##🍕": 1550,
      "##🍴": 1551,
      "##🍝": 1552,
      "##😶": 1553,
      "##👮": 1554,
      "##ュ": 1555,
      "##خ": 1556,
      "##🍭": 1557,
      "##🍒": 1558,
      "##ツ": 1559,
      "##セ": 1560,
      "##シ": 1561,
      "##→": 1562,
      "##👹": 1563,
      "##🐣": 1564,
      "##क": 1565,
      "##श": 1566,
      "##💯": 1567,
      "##🙀": 1568,
      "##🤡": 1569,
      "##¸": 1570,
      "##￼": 1571,
      "##💊": 1572,
      "##ต": 1573,
      "##☆": 1574,
      "##🚶": 1575,
      "##🙆": 1576,
      "##😗": 1577,
      "##🍦": 1578,
      "##🏄": 1579,
      "##🤘": 1580,
      "##🎭": 1581,
      "##💩": 1582,
      "##🌈": 1583,
      "##😾": 1584,
      "##⛄": 1585,
      "##🌾": 1586,
      "##ظ": 1587,
      "##👦": 1588,
      "##👨": 1589,
      "##🇪": 1590,
      "##🇧": 1591,
      "##🇵": 1592,
      "##🇹": 1593,
      "##🇦": 1594,
      "##🐒": 1595,
      "##🏀": 1596,
      "##💬": 1597,
      "##♪": 1598,
      "##ว": 1599,
      "##🎍": 1600,
      "##ग": 1601,
      "##ᅦ": 1602,
      "##❄": 1603,
      "##👵": 1604,
      "##📞": 1605,
      "##👴": 1606,
      "##🐻": 1607,
      "##🍧": 1608,
      "##♂": 1609,
      "##ᆷ": 1610,
      "##👶": 1611,
      "##อ": 1612,
      "##♡": 1613,
      "##प": 1614,
      "##🤷": 1615,
      "##🍰": 1616,
      "##📲": 1617,
      "##せ": 1618,
      "##📚": 1619,
      "##ヒ": 1620,
      "##エ": 1621,
      "##👰": 1622,
      "##●": 1623,
      "##ह": 1624,
      "##य": 1625,
      "##½": 1626,
      "##📺": 1627,
      "##ᄎ": 1628,
      "##👺": 1629,
      "##व": 1630,
      "##ण": 1631,
      "##φ": 1632,
      "##─": 1633,
      "##🤓": 1634,
      "##δ": 1635,
      "##🏆": 1636,
      "##🍔": 1637,
      "##ッ": 1638,
      "##ি": 1639,
      "##👥": 1640,
      "##わ": 1641,
      "##メ": 1642,
      "##💆": 1643,
      "##✂": 1644,
      "##ա": 1645,
      "##ն": 1646,
      "##ր": 1647,
      "##ե": 1648,
      "##տ": 1649,
      "##ո": 1650,
      "##🍩": 1651,
      "##ъ": 1652,
      "##🍃": 1653,
      "##ニ": 1654,
      "##😧": 1655,
      "##🚘": 1656,
      "##म": 1657,
      "##🍬": 1658,
      "##θ": 1659,
      "##ᅢ": 1660,
      "##🔵": 1661,
      "##ब": 1662,
      "##ज": 1663,
      "##サ": 1664,
      "##え": 1665,
      "##ᄃ": 1666,
      "##🚫": 1667,
      "##🕯": 1668,
      "##🍗": 1669,
      "##ि": 1670,
      "##🍪": 1671,
      "##🇳": 1672,
      "##ᄆ": 1673,
      "##ส": 1674,
      "##च": 1675,
      "##£": 1676,
      "##く": 1677,
      "##⏳": 1678,
      "##🍞": 1679,
      "##ᅭ": 1680,
      "##🍖": 1681,
      "##💨": 1682,
      "##📝": 1683,
      "##گ": 1684,
      "##🍍": 1685,
      "##ձ": 1686,
      "##¯": 1687,
      "##🆗": 1688,
      "##✏": 1689,
      "##ო": 1690,
      "##რ": 1691,
      "##マ": 1692,
      "##🚀": 1693,
      "##🍀": 1694,
      "##ᄑ": 1695,
      "##⬅": 1696,
      "##э": 1697,
      "##⛔": 1698,
      "##🍇": 1699,
      "##👛": 1700,
      "##🏁": 1701,
      "##ღ": 1702,
      "##ს": 1703,
      "##γ": 1704,
      "##チ": 1705,
      "##🐝": 1706,
      "##🔜": 1707,
      "##👟": 1708,
      "##👽": 1709,
      "##ᆻ": 1710,
      "##💧": 1711,
      "##ნ": 1712,
      "##🔕": 1713,
      "##🚬": 1714,
      "##װ": 1715,
      "##★": 1716,
      "##🌍": 1717,
      "##🔃": 1718,
      "##÷": 1719,
      "##پ": 1720,
      "##🐼": 1721,
      "##ძ": 1722,
      "##🐾": 1723,
      "##ᅪ": 1724,
      "##📷": 1725,
      "##🇬": 1726,
      "##چ": 1727,
      "##²": 1728,
      "##🐷": 1729,
      "##オ": 1730,
      "##🖖": 1731,
      "##พ": 1732,
      "##ट": 1733,
      "##⠀": 1734,
      "##⚠": 1735,
      "##ड": 1736,
      "##✿": 1737,
      "##↓": 1738,
      "##µ": 1739,
      "##そ": 1740,
      "##🛍": 1741,
      "##↔": 1742,
      "##भ": 1743,
      "##ध": 1744,
      "##đ": 1745,
      "##♫": 1746,
      "##📱": 1747,
      "##ヽ": 1748,
      "##📣": 1749,
      "##ք": 1750,
      "##🇨": 1751,
      "##⁰": 1752,
      "##խ": 1753,
      "##🍆": 1754,
      "##⌚": 1755,
      "##🐄": 1756,
      "##ᆺ": 1757,
      "##🏡": 1758,
      "##ব": 1759,
      "##🐚": 1760,
      "##▶": 1761,
      "##◄": 1762,
      "##▪": 1763,
      "##⬇": 1764,
      "##♬": 1765,
      "##☎": 1766,
      "##ի": 1767,
      "##¥": 1768,
      "##ᴴ": 1769,
      "##🚨": 1770,
      "##ս": 1771,
      "##˜": 1772,
      "##¦": 1773,
      "##▼": 1774,
      "##█": 1775,
      "##■": 1776,
      "##▲": 1777,
      "##🔄": 1778,
      "##➖": 1779,
      "##┈": 1780,
      "##ರ": 1781,
      "##♦": 1782,
      "##🐧": 1783,
      "##↑": 1784,
      "##ᇂ": 1785,
      "##इ": 1786,
      "##ᆽ": 1787,
      "##ര": 1788,
      "##հ": 1789,
      "##📈": 1790,
      "##٠": 1791,
      "##↩": 1792,
      "##⇦": 1793,
      "##▓": 1794,
      "##￣": 1795,
      "##⇨": 1796,
      "##आ": 1797,
      "##◠": 1798,
      "##ᴰ": 1799,
      "##ㅤ": 1800,
      "##ର": 1801,
      "##ים": 1802,
      "##ות": 1803,
      "##ני": 1804,
      "##ור": 1805,
      "של": 1806,
      "##ול": 1807,
      "##ית": 1808,
      "##יר": 1809,
      "את": 1810,
      "##וב": 1811,
      "##וד": 1812,
      "לא": 1813,
      "##ון": 1814,
      "המ": 1815,
      "##לי": 1816,
      "##רי": 1817,
      "##נו": 1818,
      "##בר": 1819,
      "##נה": 1820,
      "##יה": 1821,
      "##ין": 1822,
      "לה": 1823,
      "##יל": 1824,
      "##יו": 1825,
      "##וא": 1826,
      "על": 1827,
      "##תי": 1828,
      "##שר": 1829,
      "##ומ": 1830,
      "##בי": 1831,
      "##די": 1832,
      "הא": 1833,
      "##מו": 1834,
      "##רו": 1835,
      "##יי": 1836,
      "מה": 1837,
      "##ום": 1838,
      "##ופ": 1839,
      "##שי": 1840,
      "##מה": 1841,
      "##שה": 1842,
      "##נים": 1843,
      "##וק": 1844,
      "זה": 1845,
      "##כל": 1846,
      "##יד": 1847,
      "במ": 1848,
      "בא": 1849,
      "##לה": 1850,
      "אי": 1851,
      "##רא": 1852,
      "הש": 1853,
      "הי": 1854,
      "הח": 1855,
      "שה": 1856,
      "##וע": 1857,
      "##יות": 1858,
      "##וס": 1859,
      "##נות": 1860,
      "##בל": 1861,
      "אח": 1862,
      "או": 1863,
      "##יק": 1864,
      "וה": 1865,
      "למ": 1866,
      "##פר": 1867,
      "הת": 1868,
      "הע": 1869,
      "##זה": 1870,
      "כל": 1871,
      "בע": 1872,
      "##וח": 1873,
      "לי": 1874,
      "##אל": 1875,
      "אני": 1876,
      "##וצ": 1877,
      "מח": 1878,
      "##וג": 1879,
      "עם": 1880,
      "##לא": 1881,
      "##טי": 1882,
      "מש": 1883,
      "הוא": 1884,
      "##וש": 1885,
      "מא": 1886,
      "##יע": 1887,
      "##דר": 1888,
      "שא": 1889,
      "##טר": 1890,
      "יש": 1891,
      "מת": 1892,
      "מס": 1893,
      "וא": 1894,
      "##וו": 1895,
      "##בה": 1896,
      "##נת": 1897,
      "##מי": 1898,
      "אות": 1899,
      "מע": 1900,
      "##רים": 1901,
      "לע": 1902,
      "הר": 1903,
      "בש": 1904,
      "##מת": 1905,
      "הפ": 1906,
      "##יים": 1907,
      "הק": 1908,
      "לפ": 1909,
      "הס": 1910,
      "הב": 1911,
      "##שים": 1912,
      "שמ": 1913,
      "מי": 1914,
      "הכ": 1915,
      "הג": 1916,
      "##צי": 1917,
      "שי": 1918,
      "כי": 1919,
      "##בע": 1920,
      "בת": 1921,
      "##נס": 1922,
      "אל": 1923,
      "בה": 1924,
      "##רת": 1925,
      "##מש": 1926,
      "##חח": 1927,
      "בי": 1928,
      "גם": 1929,
      "לש": 1930,
      "##רכ": 1931,
      "לב": 1932,
      "##וכ": 1933,
      "##קר": 1934,
      "בח": 1935,
      "הה": 1936,
      "##בת": 1937,
      "ומ": 1938,
      "##רג": 1939,
      "לח": 1940,
      "##את": 1941,
      "##פה": 1942,
      "##וי": 1943,
      "##מים": 1944,
      "##שראל": 1945,
      "##בים": 1946,
      "##וט": 1947,
      "##מן": 1948,
      "##שת": 1949,
      "##רח": 1950,
      "##דים": 1951,
      "##ותר": 1952,
      "##יום": 1953,
      "##כול": 1954,
      "מק": 1955,
      "אם": 1956,
      "##סי": 1957,
      "##כה": 1958,
      "מצ": 1959,
      "הצ": 1960,
      "##עת": 1961,
      "##נית": 1962,
      "##ורה": 1963,
      "##רה": 1964,
      "##שות": 1965,
      "היה": 1966,
      "##עות": 1967,
      "היא": 1968,
      "אבל": 1969,
      "##פי": 1970,
      "##דה": 1971,
      "##חת": 1972,
      "הנ": 1973,
      "אנ": 1974,
      "##עה": 1975,
      "אמ": 1976,
      "ול": 1977,
      "##וז": 1978,
      "##לים": 1979,
      "##בות": 1980,
      "##חר": 1981,
      "מפ": 1982,
      "##חה": 1983,
      "##וף": 1984,
      "יותר": 1985,
      "##כם": 1986,
      "לק": 1987,
      "מב": 1988,
      "וב": 1989,
      "##אי": 1990,
      "הד": 1991,
      "##בוד": 1992,
      "##ולם": 1993,
      "##ונ": 1994,
      "שלי": 1995,
      "רק": 1996,
      "מכ": 1997,
      "טוב": 1998,
      "וע": 1999,
      "##ירות": 2000,
      "##אה": 2001,
      "##פת": 2002,
      "##ירה": 2003,
      "בר": 2004,
      "##ונה": 2005,
      "##יש": 2006,
      "הז": 2007,
      "בס": 2008,
      "שב": 2009,
      "##לק": 2010,
      "בין": 2011,
      "##בור": 2012,
      "##כת": 2013,
      "בג": 2014,
      "אין": 2015,
      "בפ": 2016,
      "ישראל": 2017,
      "##מות": 2018,
      "##יא": 2019,
      "רא": 2020,
      "בב": 2021,
      "כא": 2022,
      "אפ": 2023,
      "ממ": 2024,
      "##ניה": 2025,
      "##גד": 2026,
      "##וה": 2027,
      "##יפ": 2028,
      "כמו": 2029,
      "##יתי": 2030,
      "##יס": 2031,
      "לת": 2032,
      "##יצ": 2033,
      "##וני": 2034,
      "20": 2035,
      "המש": 2036,
      "##קה": 2037,
      "##אות": 2038,
      "אז": 2039,
      "##נט": 2040,
      "מחיר": 2041,
      "##חות": 2042,
      "יה": 2043,
      "עד": 2044,
      "##לת": 2045,
      "##חד": 2046,
      "בק": 2047,
      "##קים": 2048,
      "##ולי": 2049,
      "מג": 2050,
      "##ראש": 2051,
      "פר": 2052,
      "פע": 2053,
      "##אים": 2054,
      "##לו": 2055,
      "אחד": 2056,
      "##לב": 2057,
      "##דם": 2058,
      "##טה": 2059,
      "##עים": 2060,
      "##מצ": 2061,
      "##ילה": 2062,
      "עצ": 2063,
      "מד": 2064,
      "בכ": 2065,
      "שע": 2066,
      "שנ": 2067,
      "לג": 2068,
      "##ולה": 2069,
      "##אר": 2070,
      "##כו": 2071,
      "יכול": 2072,
      "##ורים": 2073,
      "עלי": 2074,
      "לו": 2075,
      "##ברים": 2076,
      "##טים": 2077,
      "הם": 2078,
      "##חק": 2079,
      "##כן": 2080,
      "שלא": 2081,
      "##רות": 2082,
      "מחירון": 2083,
      "##ינ": 2084,
      "בכל": 2085,
      "##כות": 2086,
      "אתה": 2087,
      "##וך": 2088,
      "להת": 2089,
      "לד": 2090,
      "עוד": 2091,
      "כך": 2092,
      "לך": 2093,
      "##ונים": 2094,
      "##כים": 2095,
      "כבר": 2096,
      "##מר": 2097,
      "##לות": 2098,
      "##יתה": 2099,
      "ולא": 2100,
      "חש": 2101,
      "חד": 2102,
      "##טוב": 2103,
      "##מוד": 2104,
      "##שהו": 2105,
      "הזה": 2106,
      "##er": 2107,
      "##רב": 2108,
      "##כש": 2109,
      "בית": 2110,
      "היום": 2111,
      "##פק": 2112,
      "לצ": 2113,
      "##ומר": 2114,
      "##יעה": 2115,
      "##ראה": 2116,
      "##דרך": 2117,
      "##ריך": 2118,
      "##ילו": 2119,
      "חבר": 2120,
      "בד": 2121,
      "##לח": 2122,
      "לס": 2123,
      "נת": 2124,
      "מז": 2125,
      "בט": 2126,
      "##פט": 2127,
      "##דת": 2128,
      "וש": 2129,
      "##יב": 2130,
      "##עי": 2131,
      "##צה": 2132,
      "לפני": 2133,
      "##ובים": 2134,
      "##פים": 2135,
      "##on": 2136,
      "##חחחח": 2137,
      "##תה": 2138,
      "לכ": 2139,
      "כש": 2140,
      "ראש": 2141,
      "אותו": 2142,
      "##וצה": 2143,
      "##סק": 2144,
      "##ודה": 2145,
      "כמה": 2146,
      "כדי": 2147,
      "##דות": 2148,
      "##לט": 2149,
      "להיות": 2150,
      "##רך": 2151,
      "##מיד": 2152,
      "##סט": 2153,
      "אלי": 2154,
      "##נג": 2155,
      "##ינו": 2156,
      "שק": 2157,
      "##ווה": 2158,
      "##in": 2159,
      "##נק": 2160,
      "תק": 2161,
      "איך": 2162,
      "##פות": 2163,
      "##ורי": 2164,
      "בו": 2165,
      "וח": 2166,
      "אחרי": 2167,
      "בני": 2168,
      "##חים": 2169,
      "##כי": 2170,
      "##צל": 2171,
      "##ורת": 2172,
      "##סת": 2173,
      "היו": 2174,
      "יום": 2175,
      "##00": 2176,
      "##גע": 2177,
      "קר": 2178,
      "##חנו": 2179,
      "19": 2180,
      "זו": 2181,
      "##גר": 2182,
      "ות": 2183,
      "##ירים": 2184,
      "##פו": 2185,
      "סי": 2186,
      "##ובה": 2187,
      "שלו": 2188,
      "שאני": 2189,
      "הט": 2190,
      "נס": 2191,
      "##ra": 2192,
      "##זור": 2193,
      "##רט": 2194,
      "##ולים": 2195,
      "##חי": 2196,
      "##el": 2197,
      "##כון": 2198,
      "##פור": 2199,
      "##כשיו": 2200,
      "בצ": 2201,
      "##גי": 2202,
      "הכל": 2203,
      "כן": 2204,
      "וכ": 2205,
      "ממש": 2206,
      "גד": 2207,
      "שלה": 2208,
      "שני": 2209,
      "##ברה": 2210,
      "למה": 2211,
      "##שו": 2212,
      "בדרך": 2213,
      "הכי": 2214,
      "יוד": 2215,
      "מר": 2216,
      "חי": 2217,
      "##מד": 2218,
      "שם": 2219,
      "##יותר": 2220,
      "מדי": 2221,
      "יצ": 2222,
      "שהוא": 2223,
      "הראש": 2224,
      "נגד": 2225,
      "##לל": 2226,
      "##קום": 2227,
      "אה": 2228,
      "נש": 2229,
      "די": 2230,
      "##צוע": 2231,
      "##או": 2232,
      "שת": 2233,
      "אב": 2234,
      "##חש": 2235,
      "##וץ": 2236,
      "פי": 2237,
      "וג": 2238,
      "איזה": 2239,
      "ידי": 2240,
      "בן": 2241,
      "##בודה": 2242,
      "##מע": 2243,
      "##לול": 2244,
      "##סה": 2245,
      "##ברי": 2246,
      "בלי": 2247,
      "##נד": 2248,
      "##ילים": 2249,
      "##ווי": 2250,
      "##רץ": 2251,
      "אבי": 2252,
      "##כר": 2253,
      "##😂😂": 2254,
      "##חס": 2255,
      "201": 2256,
      "יע": 2257,
      "נפ": 2258,
      "אפשר": 2259,
      "##וקר": 2260,
      "##ניות": 2261,
      "יל": 2262,
      "##יקה": 2263,
      "##תר": 2264,
      "שיש": 2265,
      "זאת": 2266,
      "לנו": 2267,
      "##an": 2268,
      "אותי": 2269,
      "##קות": 2270,
      "##ער": 2271,
      "##צת": 2272,
      "מט": 2273,
      "##or": 2274,
      "עכשיו": 2275,
      "לכל": 2276,
      "אנשים": 2277,
      "שלך": 2278,
      "הבי": 2279,
      "##וגל": 2280,
      "##לך": 2281,
      "##ניין": 2282,
      "##en": 2283,
      "##מא": 2284,
      "##ופה": 2285,
      "##פס": 2286,
      "##גל": 2287,
      "##es": 2288,
      "##ניים": 2289,
      "##הה": 2290,
      "מאוד": 2291,
      "##בו": 2292,
      "לאחר": 2293,
      "נע": 2294,
      "מרח": 2295,
      "##גה": 2296,
      "תש": 2297,
      "צריך": 2298,
      "כת": 2299,
      "בל": 2300,
      "שר": 2301,
      "אשר": 2302,
      "##בד": 2303,
      "אוה": 2304,
      "##חו": 2305,
      "##ובר": 2306,
      "נוס": 2307,
      "בבית": 2308,
      "קט": 2309,
      "לר": 2310,
      "##ירת": 2311,
      "##ואה": 2312,
      "יד": 2313,
      "##ar": 2314,
      "אך": 2315,
      "רוצה": 2316,
      "בז": 2317,
      "דבר": 2318,
      "##בוע": 2319,
      "##מין": 2320,
      "##ורות": 2321,
      "פעם": 2322,
      "ביותר": 2323,
      "הרבה": 2324,
      "##רכז": 2325,
      "##צר": 2326,
      "##תיים": 2327,
      "##צע": 2328,
      "##חל": 2329,
      "##ומי": 2330,
      "להג": 2331,
      "שכ": 2332,
      "##פשר": 2333,
      "##קי": 2334,
      "אדם": 2335,
      "##לם": 2336,
      "##תם": 2337,
      "##זר": 2338,
      "אר": 2339,
      "אנחנו": 2340,
      "##al": 2341,
      "##שוט": 2342,
      "##ורך": 2343,
      "השי": 2344,
      "##ילומ": 2345,
      "##וות": 2346,
      "10": 2347,
      "נית": 2348,
      "אוטוב": 2349,
      "בנו": 2350,
      "##פל": 2351,
      "אוטובוס": 2352,
      "הפר": 2353,
      "כול": 2354,
      "אחת": 2355,
      "המח": 2356,
      "##ומה": 2357,
      "##בא": 2358,
      "חיי": 2359,
      "המת": 2360,
      "גוגל": 2361,
      "##סים": 2362,
      "##at": 2363,
      "ונ": 2364,
      "##עם": 2365,
      "##טח": 2366,
      "שנה": 2367,
      "תח": 2368,
      "##מונה": 2369,
      "##כנ": 2370,
      "##קש": 2371,
      "##ילות": 2372,
      "מסלול": 2373,
      "##צים": 2374,
      "##קת": 2375,
      "נסיעה": 2376,
      "הל": 2377,
      "נה": 2378,
      "ולה": 2379,
      "דרך": 2380,
      "כב": 2381,
      "##אלי": 2382,
      "עו": 2383,
      "##ידה": 2384,
      "לעשות": 2385,
      "##ילומטר": 2386,
      "עדי": 2387,
      "עוב": 2388,
      "אותך": 2389,
      "אחר": 2390,
      "##פון": 2391,
      "##מל": 2392,
      "קילומטר": 2393,
      "אלא": 2394,
      "מפות": 2395,
      "##סף": 2396,
      "המק": 2397,
      "##של": 2398,
      "תה": 2399,
      "##צב": 2400,
      "מרחק": 2401,
      "הול": 2402,
      "שח": 2403,
      "צי": 2404,
      "חלק": 2405,
      "יהיה": 2406,
      "להם": 2407,
      "לנ": 2408,
      "##טת": 2409,
      "תע": 2410,
      "##קרה": 2411,
      "##כנס": 2412,
      "מל": 2413,
      "##מית": 2414,
      "ספר": 2415,
      "##ופן": 2416,
      "ישובים": 2417,
      "שנים": 2418,
      "גב": 2419,
      "למע": 2420,
      "שלנו": 2421,
      "##ונות": 2422,
      "מספר": 2423,
      "תל": 2424,
      "##קס": 2425,
      "אותה": 2426,
      "##ודי": 2427,
      "מוצ": 2428,
      "##קט": 2429,
      "##ריה": 2430,
      "אף": 2431,
      "##גים": 2432,
      "##וכל": 2433,
      "הלי": 2434,
      "לכם": 2435,
      "בפני": 2436,
      "##בח": 2437,
      "##ציה": 2438,
      "וי": 2439,
      "האח": 2440,
      "פשוט": 2441,
      "אתם": 2442,
      "##ראות": 2443,
      "##עד": 2444,
      "משהו": 2445,
      "##ירי": 2446,
      "##יוחד": 2447,
      "##ביל": 2448,
      "##וחות": 2449,
      "##חיל": 2450,
      "חוש": 2451,
      "המע": 2452,
      "##שא": 2453,
      "מנ": 2454,
      "שזה": 2455,
      "##ביר": 2456,
      "##טרה": 2457,
      "##צות": 2458,
      "##מור": 2459,
      "חיים": 2460,
      "##רכת": 2461,
      "##קד": 2462,
      "##דינה": 2463,
      "##מוש": 2464,
      "אביב": 2465,
      "אש": 2466,
      "##דור": 2467,
      "##it": 2468,
      "אית": 2469,
      "חז": 2470,
      "is": 2471,
      "המס": 2472,
      "החל": 2473,
      "אור": 2474,
      "לל": 2475,
      "וגם": 2476,
      "איר": 2477,
      "##et": 2478,
      "אד": 2479,
      "ור": 2480,
      "##תת": 2481,
      "אמר": 2482,
      "##אן": 2483,
      "##is": 2484,
      "##דש": 2485,
      "##ליון": 2486,
      "זמן": 2487,
      "אינ": 2488,
      "גר": 2489,
      "##os": 2490,
      "תמיד": 2491,
      "משפ": 2492,
      "ללא": 2493,
      "איש": 2494,
      "מלא": 2495,
      "אותם": 2496,
      "נק": 2497,
      "gt": 2498,
      "##מון": 2499,
      "במה": 2500,
      "##ליה": 2501,
      "##ומים": 2502,
      "במש": 2503,
      "##דו": 2504,
      "הנו": 2505,
      "אס": 2506,
      "בנ": 2507,
      "##יקר": 2508,
      "ניתן": 2509,
      "th": 2510,
      "כאן": 2511,
      "לפי": 2512,
      "קור": 2513,
      "##ייס": 2514,
      "האם": 2515,
      "##צח": 2516,
      "באמת": 2517,
      "פת": 2518,
      "נראה": 2519,
      "##ניהו": 2520,
      "שש": 2521,
      "הרי": 2522,
      "האי": 2523,
      "הוד": 2524,
      "##קל": 2525,
      "הגד": 2526,
      "in": 2527,
      "נא": 2528,
      "##טל": 2529,
      "##ולוג": 2530,
      "פה": 2531,
      "##ולות": 2532,
      "צרי": 2533,
      "ברי": 2534,
      "ני": 2535,
      "ית": 2536,
      "אומ": 2537,
      "##קב": 2538,
      "רב": 2539,
      "תודה": 2540,
      "##ודים": 2541,
      "##פע": 2542,
      "##ירוש": 2543,
      "אולי": 2544,
      "##רום": 2545,
      "##פרי": 2546,
      "##זו": 2547,
      "##ומות": 2548,
      "12": 2549,
      "אלה": 2550,
      "##סטי": 2551,
      "המשפט": 2552,
      "בעולם": 2553,
      "פל": 2554,
      "מוס": 2555,
      "##גת": 2556,
      "##בק": 2557,
      "##טו": 2558,
      "##גות": 2559,
      "##וריה": 2560,
      "##רונות": 2561,
      "##גש": 2562,
      "יח": 2563,
      "##rael": 2564,
      "הייתי": 2565,
      "11": 2566,
      "##ואי": 2567,
      "##ובות": 2568,
      "##מרי": 2569,
      "ועוד": 2570,
      "כאשר": 2571,
      "יא": 2572,
      "בישראל": 2573,
      "##שרד": 2574,
      "##כב": 2575,
      "במקום": 2576,
      "חוק": 2577,
      "השופ": 2578,
      "הצי": 2579,
      "##ing": 2580,
      "##ou": 2581,
      "במס": 2582,
      "יפה": 2583,
      "קשה": 2584,
      "נכון": 2585,
      "##גיע": 2586,
      "##טע": 2587,
      "##בתי": 2588,
      "הייתה": 2589,
      "כנ": 2590,
      "כשה": 2591,
      "##רוש": 2592,
      "תא": 2593,
      "אנו": 2594,
      "מול": 2595,
      "##ידע": 2596,
      "200": 2597,
      "יודע": 2598,
      "##קו": 2599,
      "באופן": 2600,
      "עבור": 2601,
      "##נתי": 2602,
      "מוש": 2603,
      "##ושים": 2604,
      "לז": 2605,
      "רע": 2606,
      "עדיין": 2607,
      "יוצ": 2608,
      "##מח": 2609,
      "רח": 2610,
      "##ומת": 2611,
      "##נשים": 2612,
      "המא": 2613,
      "אופ": 2614,
      "##עתי": 2615,
      "##ed": 2616,
      "שאתה": 2617,
      "ואני": 2618,
      "##שם": 2619,
      "israel": 2620,
      "קצת": 2621,
      "שוב": 2622,
      "##ic": 2623,
      "to": 2624,
      "נתניהו": 2625,
      "שלהם": 2626,
      "##לום": 2627,
      "חדש": 2628,
      "התק": 2629,
      "הרו": 2630,
      "מבי": 2631,
      "##לית": 2632,
      "שהם": 2633,
      "הרב": 2634,
      "שג": 2635,
      "אומר": 2636,
      "היל": 2637,
      "אג": 2638,
      "בתי": 2639,
      "##ובי": 2640,
      "כזה": 2641,
      "חס": 2642,
      "לראות": 2643,
      "שהיא": 2644,
      "וק": 2645,
      "##רוץ": 2646,
      "##ברת": 2647,
      "ביום": 2648,
      "מתי": 2649,
      "##ילת": 2650,
      "אצל": 2651,
      "##ואר": 2652,
      "מוכ": 2653,
      "התי": 2654,
      "העולם": 2655,
      "היי": 2656,
      "##il": 2657,
      "עושה": 2658,
      "וזה": 2659,
      "באמצ": 2660,
      "סט": 2661,
      "כה": 2662,
      "##ועל": 2663,
      "בתח": 2664,
      "st": 2665,
      "##משלה": 2666,
      "##פש": 2667,
      "רג": 2668,
      "דברים": 2669,
      "##ודש": 2670,
      "רצ": 2671,
      "להע": 2672,
      "##as": 2673,
      "בגלל": 2674,
      "##יהם": 2675,
      "כמ": 2676,
      "##יוק": 2677,
      "מרג": 2678,
      "מנה": 2679,
      "##זי": 2680,
      "##om": 2681,
      "קי": 2682,
      "הספר": 2683,
      "מקום": 2684,
      "##יני": 2685,
      "נח": 2686,
      "##עו": 2687,
      "##בודות": 2688,
      "##וסי": 2689,
      "משת": 2690,
      "שבוע": 2691,
      "ככה": 2692,
      "הראשון": 2693,
      "פרס": 2694,
      "##פיק": 2695,
      "בכלל": 2696,
      "פרו": 2697,
      "##נטי": 2698,
      "##פול": 2699,
      "גדול": 2700,
      "##םם": 2701,
      "##מעות": 2702,
      "וס": 2703,
      "הזמן": 2704,
      "##וצים": 2705,
      "##ברית": 2706,
      "תר": 2707,
      "##יח": 2708,
      "מוז": 2709,
      "15": 2710,
      "טיפ": 2711,
      "החיים": 2712,
      "ער": 2713,
      "##ודות": 2714,
      "בהת": 2715,
      "פרי": 2716,
      "##ובן": 2717,
      "##מם": 2718,
      "בלב": 2719,
      "##ריות": 2720,
      "##ופי": 2721,
      "תת": 2722,
      "מתח": 2723,
      "##מס": 2724,
      "שיר": 2725,
      "##גן": 2726,
      "שהת": 2727,
      "##שיך": 2728,
      "##iv": 2729,
      "ואת": 2730,
      "בשביל": 2731,
      "השני": 2732,
      "##כיר": 2733,
      "##נון": 2734,
      "##נסת": 2735,
      "דו": 2736,
      "מחר": 2737,
      "נמצ": 2738,
      "##מפ": 2739,
      "שבת": 2740,
      "רבים": 2741,
      "למי": 2742,
      "הבית": 2743,
      "עבודה": 2744,
      "הן": 2745,
      "##טית": 2746,
      "ופ": 2747,
      "##אם": 2748,
      "בשי": 2749,
      "אפילו": 2750,
      "מישהו": 2751,
      "חשוב": 2752,
      "הור": 2753,
      "לעצ": 2754,
      "קל": 2755,
      "##פרס": 2756,
      "המדינה": 2757,
      "לקבל": 2758,
      "##ותו": 2759,
      "גור": 2760,
      "כולם": 2761,
      "##גו": 2762,
      "##חז": 2763,
      "ואז": 2764,
      "##בית": 2765,
      "שירות": 2766,
      "מכל": 2767,
      "חחחחח": 2768,
      "עש": 2769,
      "נד": 2770,
      "גל": 2771,
      "חל": 2772,
      "לבית": 2773,
      "the": 2774,
      "ביק": 2775,
      "ילדים": 2776,
      "##יך": 2777,
      "משפט": 2778,
      "מור": 2779,
      "##ובע": 2780,
      "מוע": 2781,
      "עליו": 2782,
      "##מק": 2783,
      "##שרה": 2784,
      "הקר": 2785,
      "לבי": 2786,
      "הופ": 2787,
      "ארו": 2788,
      "שפ": 2789,
      "ומת": 2790,
      "מן": 2791,
      "גבוה": 2792,
      "בדי": 2793,
      "##פקיד": 2794,
      "למש": 2795,
      "##צו": 2796,
      "בדיוק": 2797,
      "##נוי": 2798,
      "בקר": 2799,
      "##בוק": 2800,
      "18": 2801,
      "שלום": 2802,
      "שלכם": 2803,
      "##גוע": 2804,
      "חברת": 2805,
      "שאין": 2806,
      "עליה": 2807,
      "##ליט": 2808,
      "שבע": 2809,
      "שתי": 2810,
      "##מנו": 2811,
      "פחות": 2812,
      "ליי": 2813,
      "##ראי": 2814,
      "חדשות": 2815,
      "קב": 2816,
      "##am": 2817,
      "שיע": 2818,
      "##re": 2819,
      "החברה": 2820,
      "העיר": 2821,
      "##בט": 2822,
      "והוא": 2823,
      "במע": 2824,
      "##וסט": 2825,
      "מוד": 2826,
      "טובה": 2827,
      "במו": 2828,
      "מתק": 2829,
      "ההת": 2830,
      "##יפור": 2831,
      "##וקה": 2832,
      "##נא": 2833,
      "##ליך": 2834,
      "##מנים": 2835,
      "הגיע": 2836,
      "נג": 2837,
      "בסי": 2838,
      "פור": 2839,
      "##רגע": 2840,
      "##שיא": 2841,
      "##מול": 2842,
      "##גרת": 2843,
      "יכולה": 2844,
      "אלו": 2845,
      "##ופר": 2846,
      "##שראלי": 2847,
      "לקר": 2848,
      "באי": 2849,
      "הממשלה": 2850,
      "בשנת": 2851,
      "חומ": 2852,
      "##ולד": 2853,
      "##זק": 2854,
      "ספ": 2855,
      "##וטר": 2856,
      "ראשון": 2857,
      "והת": 2858,
      "סרט": 2859,
      "קרי": 2860,
      "סוף": 2861,
      "למצ": 2862,
      "##ירושלים": 2863,
      "##ביא": 2864,
      "##מך": 2865,
      "##נם": 2866,
      "ווא": 2867,
      "##נוע": 2868,
      "טר": 2869,
      "סוג": 2870,
      "##מתי": 2871,
      "##טוח": 2872,
      "במח": 2873,
      "הסי": 2874,
      "##ch": 2875,
      "תג": 2876,
      "לפע": 2877,
      "הנה": 2878,
      "מאז": 2879,
      "##אלה": 2880,
      "##ot": 2881,
      "לט": 2882,
      "##ליים": 2883,
      "מקצוע": 2884,
      "מזה": 2885,
      "##שון": 2886,
      "##דרה": 2887,
      "התע": 2888,
      "מסת": 2889,
      "##בין": 2890,
      "##מעט": 2891,
      "ברו": 2892,
      "##וקים": 2893,
      "במק": 2894,
      "מיי": 2895,
      "##יוון": 2896,
      "שעות": 2897,
      "תוכ": 2898,
      "##צא": 2899,
      "הזאת": 2900,
      "##ופש": 2901,
      "בוקר": 2902,
      "כולל": 2903,
      "##שימה": 2904,
      "כר": 2905,
      "בהם": 2906,
      "האלה": 2907,
      "היתה": 2908,
      "##שוב": 2909,
      "לשי": 2910,
      "בעצ": 2911,
      "##שק": 2912,
      "התח": 2913,
      "##רד": 2914,
      "##בעת": 2915,
      "##נסה": 2916,
      "שמע": 2917,
      "##מוך": 2918,
      "##מט": 2919,
      "##נן": 2920,
      "הני": 2921,
      "ומש": 2922,
      "##ion": 2923,
      "14": 2924,
      "מגיע": 2925,
      "##תו": 2926,
      "בארץ": 2927,
      "הארץ": 2928,
      "ברח": 2929,
      "שהיה": 2930,
      "כד": 2931,
      "גי": 2932,
      "במהלך": 2933,
      "פני": 2934,
      "##גור": 2935,
      "ומה": 2936,
      "רוב": 2937,
      "אחרים": 2938,
      "##ol": 2939,
      "וד": 2940,
      "##קע": 2941,
      "##בון": 2942,
      "עצמו": 2943,
      "##מונות": 2944,
      "##רונה": 2945,
      "להצ": 2946,
      "##מנות": 2947,
      "מדובר": 2948,
      "יק": 2949,
      "##בלים": 2950,
      "עי": 2951,
      "כלל": 2952,
      "ויש": 2953,
      "תיק": 2954,
      "##זרח": 2955,
      "בזמן": 2956,
      "##וקא": 2957,
      "השנה": 2958,
      "להי": 2959,
      "##ופים": 2960,
      "שמת": 2961,
      "##כס": 2962,
      "פס": 2963,
      "וכל": 2964,
      "##ра": 2965,
      "30": 2966,
      "קול": 2967,
      "באמצעות": 2968,
      "תוך": 2969,
      "##טור": 2970,
      "הדי": 2971,
      "עומ": 2972,
      "##שרות": 2973,
      "טל": 2974,
      "שצ": 2975,
      "רבי": 2976,
      "##ירוע": 2977,
      "אוהב": 2978,
      "בעלי": 2979,
      "דר": 2980,
      "לצי": 2981,
      "עז": 2982,
      "המשפ": 2983,
      "##וחה": 2984,
      "כח": 2985,
      "##ואים": 2986,
      "יב": 2987,
      "##ליח": 2988,
      "בראש": 2989,
      "רי": 2990,
      "##ברות": 2991,
      "##יפה": 2992,
      "חברה": 2993,
      "ועל": 2994,
      "המב": 2995,
      "מלח": 2996,
      "##רכות": 2997,
      "##ль": 2998,
      "צע": 2999,
      "שונים": 3000,
      "##נר": 3001,
      "אינו": 3002,
      "##רר": 3003,
      "עבודות": 3004,
      "##חור": 3005,
      "להפ": 3006,
      "השר": 3007,
      "הבא": 3008,
      "13": 3009,
      "אוכל": 3010,
      "##ודם": 3011,
      "##בעים": 3012,
      "עמ": 3013,
      "שבה": 3014,
      "שכל": 3015,
      "אחרת": 3016,
      "##ak": 3017,
      "##טחון": 3018,
      "##טות": 3019,
      "להשת": 3020,
      "an": 3021,
      "הלא": 3022,
      "##יוני": 3023,
      "##ופת": 3024,
      "שום": 3025,
      "הזו": 3026,
      "הטוב": 3027,
      "צה": 3028,
      "בחיים": 3029,
      "16": 3030,
      "יחד": 3031,
      "איפה": 3032,
      "מתוך": 3033,
      "##ינים": 3034,
      "ובע": 3035,
      "הדבר": 3036,
      "##פתח": 3037,
      "##בלת": 3038,
      "ומע": 3039,
      "ירוש": 3040,
      "##ליק": 3041,
      "לדעת": 3042,
      "שבו": 3043,
      "##משך": 3044,
      "החד": 3045,
      "המל": 3046,
      "קשר": 3047,
      "אוהבת": 3048,
      "##ומית": 3049,
      "##והים": 3050,
      "##ad": 3051,
      "אמא": 3052,
      "מנת": 3053,
      "יו": 3054,
      "##ap": 3055,
      "##וחים": 3056,
      "בעל": 3057,
      "כמעט": 3058,
      "התא": 3059,
      "##טרי": 3060,
      "לבד": 3061,
      "לזה": 3062,
      "ימים": 3063,
      "האחר": 3064,
      "אהבה": 3065,
      "שמו": 3066,
      "העבודה": 3067,
      "ירושלים": 3068,
      "ניצ": 3069,
      "ברור": 3070,
      "למרות": 3071,
      "משחק": 3072,
      "יור": 3073,
      "##em": 3074,
      "מרכז": 3075,
      "המצ": 3076,
      "##קור": 3077,
      "הציבור": 3078,
      "רש": 3079,
      "רואה": 3080,
      "##us": 3081,
      "##לין": 3082,
      "ליד": 3083,
      "##נע": 3084,
      "שונ": 3085,
      "##קבות": 3086,
      "##ינוך": 3087,
      "כאילו": 3088,
      "יודעת": 3089,
      "שאת": 3090,
      "דא": 3091,
      "##😂😂😂😂": 3092,
      "השת": 3093,
      "הראשונה": 3094,
      "##שרת": 3095,
      "##צד": 3096,
      "בשל": 3097,
      "מדינת": 3098,
      "##id": 3099,
      "##מיים": 3100,
      "##ברו": 3101,
      "##רכים": 3102,
      "##משיך": 3103,
      "היח": 3104,
      "##פורט": 3105,
      "חול": 3106,
      "##רכי": 3107,
      "צריכה": 3108,
      "רוצים": 3109,
      "להס": 3110,
      "בתוך": 3111,
      "שאל": 3112,
      "הנת": 3113,
      "##זל": 3114,
      "##חשב": 3115,
      "תי": 3116,
      "לפחות": 3117,
      "##שור": 3118,
      "החש": 3119,
      "בירושלים": 3120,
      "במיוחד": 3121,
      "הלב": 3122,
      "##סיון": 3123,
      "17": 3124,
      "למו": 3125,
      "##שית": 3126,
      "##יסט": 3127,
      "##ותה": 3128,
      "בתחום": 3129,
      "sh": 3130,
      "##וצר": 3131,
      "טע": 3132,
      "שמח": 3133,
      "##פא": 3134,
      "ניס": 3135,
      "דקות": 3136,
      "שיה": 3137,
      "##ניק": 3138,
      "להש": 3139,
      "מבין": 3140,
      "משמעות": 3141,
      "##ריים": 3142,
      "##ויות": 3143,
      "##וצאה": 3144,
      "מזל": 3145,
      "##צור": 3146,
      "קרובים": 3147,
      "##רגון": 3148,
      "##נחנו": 3149,
      "מעט": 3150,
      "מומ": 3151,
      "##אב": 3152,
      "##ואו": 3153,
      "##ובל": 3154,
      "ال": 3155,
      "כבוד": 3156,
      "##כני": 3157,
      "##le": 3158,
      "בלבד": 3159,
      "##ייסבוק": 3160,
      "##מאל": 3161,
      "יכולים": 3162,
      "בתל": 3163,
      "##ניהם": 3164,
      "יס": 3165,
      "##בעה": 3166,
      "##ביע": 3167,
      "##כתב": 3168,
      "משי": 3169,
      "חוד": 3170,
      "##דון": 3171,
      "לילה": 3172,
      "מני": 3173,
      "למצוא": 3174,
      "##ונית": 3175,
      "בפר": 3176,
      "##ביב": 3177,
      "##ли": 3178,
      "##על": 3179,
      "נור": 3180,
      "הטי": 3181,
      "##בול": 3182,
      "##וויטר": 3183,
      "קיבל": 3184,
      "העוב": 3185,
      "##ינם": 3186,
      "##עור": 3187,
      "##כויות": 3188,
      "וז": 3189,
      "##טרנט": 3190,
      "דוד": 3191,
      "##תיות": 3192,
      "בעיקר": 3193,
      "קיי": 3194,
      "השבוע": 3195,
      "נשים": 3196,
      "וכן": 3197,
      "מעניין": 3198,
      "חוז": 3199,
      "אליה": 3200,
      "חר": 3201,
      "##כור": 3202,
      "מים": 3203,
      "שיו": 3204,
      "נות": 3205,
      "שנת": 3206,
      "תהיה": 3207,
      "חושב": 3208,
      "משה": 3209,
      "מערכת": 3210,
      "##וסף": 3211,
      "כס": 3212,
      "להגיע": 3213,
      "כוח": 3214,
      "מצב": 3215,
      "כפי": 3216,
      "##ay": 3217,
      "דור": 3218,
      "בסוף": 3219,
      "משרד": 3220,
      "##וכה": 3221,
      "מהמ": 3222,
      "דין": 3223,
      "רפ": 3224,
      "מיוחד": 3225,
      "הגדול": 3226,
      "אצ": 3227,
      "ואח": 3228,
      "ולכן": 3229,
      "פא": 3230,
      "חברות": 3231,
      "בסדר": 3232,
      "החדש": 3233,
      "##ראו": 3234,
      "הרג": 3235,
      "הפע": 3236,
      "רבות": 3237,
      "טבע": 3238,
      "##קסט": 3239,
      "##זם": 3240,
      "##וציא": 3241,
      "נכנס": 3242,
      "מהם": 3243,
      "##ראת": 3244,
      "ומו": 3245,
      "מוק": 3246,
      "לגבי": 3247,
      "##im": 3248,
      "מצי": 3249,
      "בצורה": 3250,
      "##מאס": 3251,
      "##ליות": 3252,
      "השופט": 3253,
      "##שרים": 3254,
      "##קשורת": 3255,
      "##ew": 3256,
      "מחש": 3257,
      "בעקבות": 3258,
      "מיליון": 3259,
      "האדם": 3260,
      "גיל": 3261,
      "לדבר": 3262,
      "קו": 3263,
      "cl": 3264,
      "שומ": 3265,
      "תכ": 3266,
      "ובי": 3267,
      "תפ": 3268,
      "##יצוב": 3269,
      "כלום": 3270,
      "##טון": 3271,
      "תחת": 3272,
      "##ודית": 3273,
      "מיו": 3274,
      "##מני": 3275,
      "##וצאות": 3276,
      "הולך": 3277,
      "באר": 3278,
      "ליל": 3279,
      "כנראה": 3280,
      "ועד": 3281,
      "##כולם": 3282,
      "האחרון": 3283,
      "d7": 3284,
      "מופ": 3285,
      "##דק": 3286,
      "חדשה": 3287,
      "כתב": 3288,
      "פולי": 3289,
      "דווקא": 3290,
      "##דרות": 3291,
      "סתם": 3292,
      "שול": 3293,
      "##ידו": 3294,
      "##יייי": 3295,
      "##חם": 3296,
      "לתת": 3297,
      "חברים": 3298,
      "הו": 3299,
      "מוג": 3300,
      "הערב": 3301,
      "מספיק": 3302,
      "##יתר": 3303,
      "המוע": 3304,
      "וצ": 3305,
      "##שיים": 3306,
      "##ig": 3307,
      "##ריק": 3308,
      "##טן": 3309,
      "##זיה": 3310,
      "##ירו": 3311,
      "כסף": 3312,
      "יצא": 3313,
      "##מבר": 3314,
      "הרצ": 3315,
      "##זים": 3316,
      "טי": 3317,
      "הפס": 3318,
      "דיו": 3319,
      "עמו": 3320,
      "עושים": 3321,
      "ממנו": 3322,
      "ים": 3323,
      "##ציות": 3324,
      "00": 3325,
      "החוק": 3326,
      "לכך": 3327,
      "הברי": 3328,
      "טרא": 3329,
      "##נסי": 3330,
      "עסק": 3331,
      "נו": 3332,
      "בתק": 3333,
      "##יחס": 3334,
      "הקב": 3335,
      "כאלה": 3336,
      "עיר": 3337,
      "באתר": 3338,
      "הגר": 3339,
      "##ent": 3340,
      "ילד": 3341,
      "##ac": 3342,
      "##ביעה": 3343,
      "##טיים": 3344,
      "הדין": 3345,
      "##וכר": 3346,
      "הבע": 3347,
      "שוק": 3348,
      "##בן": 3349,
      "אותנו": 3350,
      "##נאי": 3351,
      "##נטים": 3352,
      "מנו": 3353,
      "המד": 3354,
      "##שיבה": 3355,
      "הפל": 3356,
      "##ir": 3357,
      "25": 3358,
      "קלי": 3359,
      "העליון": 3360,
      "##ידות": 3361,
      "##ואל": 3362,
      "##חן": 3363,
      "##וסר": 3364,
      "se": 3365,
      "##גון": 3366,
      "##מודים": 3367,
      "חת": 3368,
      "מרו": 3369,
      "##ко": 3370,
      "כשא": 3371,
      "קטן": 3372,
      "מידע": 3373,
      "אתמול": 3374,
      "##רכה": 3375,
      "of": 3376,
      "רוח": 3377,
      "להגיד": 3378,
      "יחס": 3379,
      "במסגרת": 3380,
      "רגע": 3381,
      "זכ": 3382,
      "הדרך": 3383,
      "חצי": 3384,
      "##חחחחחחחח": 3385,
      "ואם": 3386,
      "זוג": 3387,
      "##רגום": 3388,
      "##ורף": 3389,
      "גדולה": 3390,
      "ערב": 3391,
      "##נהל": 3392,
      "איי": 3393,
      "חחח": 3394,
      "##צרים": 3395,
      "למשל": 3396,
      "ביבי": 3397,
      "##סקים": 3398,
      "עובד": 3399,
      "##ווים": 3400,
      "##טב": 3401,
      "לקרוא": 3402,
      "##לון": 3403,
      "##בורה": 3404,
      "##אום": 3405,
      "##אית": 3406,
      "##כח": 3407,
      "יר": 3408,
      "לבין": 3409,
      "החלטה": 3410,
      "##ןן": 3411,
      "##אס": 3412,
      "לאי": 3413,
      "##נח": 3414,
      "לכן": 3415,
      "מדה": 3416,
      "##כונה": 3417,
      "ללכת": 3418,
      "בלתי": 3419,
      "##תיד": 3420,
      "##חלט": 3421,
      "שעה": 3422,
      "והמ": 3423,
      "תנו": 3424,
      "##דרת": 3425,
      "##שע": 3426,
      "המה": 3427,
      "למח": 3428,
      "שיי": 3429,
      "הילדים": 3430,
      "מוח": 3431,
      "אירוע": 3432,
      "דה": 3433,
      "из": 3434,
      "מאד": 3435,
      "##tt": 3436,
      "השלום": 3437,
      "##יונות": 3438,
      "שבי": 3439,
      "והש": 3440,
      "שנות": 3441,
      "יי": 3442,
      "בעיר": 3443,
      "שית": 3444,
      "אק": 3445,
      "##וכלו": 3446,
      "##וון": 3447,
      "##וצות": 3448,
      "מעל": 3449,
      "##ולוגיה": 3450,
      "##ברסי": 3451,
      "##ose": 3452,
      "רבה": 3453,
      "##זע": 3454,
      "המרכז": 3455,
      "לפר": 3456,
      "##иль": 3457,
      "##ia": 3458,
      "000": 3459,
      "תמ": 3460,
      "100": 3461,
      "##סל": 3462,
      "עבר": 3463,
      "תמונה": 3464,
      "ערוץ": 3465,
      "הדברים": 3466,
      "פול": 3467,
      "ציבור": 3468,
      "בזה": 3469,
      "לפת": 3470,
      "מטר": 3471,
      "הדר": 3472,
      "##ליחה": 3473,
      "משנה": 3474,
      "להבין": 3475,
      "יודעים": 3476,
      "##פני": 3477,
      "כפר": 3478,
      "שקל": 3479,
      "הבוקר": 3480,
      "היר": 3481,
      "##ודת": 3482,
      "השופטת": 3483,
      "הסרט": 3484,
      "##כלי": 3485,
      "##יצוני": 3486,
      "##פן": 3487,
      "מהר": 3488,
      "##דן": 3489,
      "מכבי": 3490,
      "קרה": 3491,
      "לישון": 3492,
      "##פתי": 3493,
      "##קשה": 3494,
      "##ag": 3495,
      "המט": 3496,
      "נוש": 3497,
      "##טיבי": 3498,
      "כיום": 3499,
      "עולם": 3500,
      "עצמי": 3501,
      "##קן": 3502,
      "##הל": 3503,
      "הרא": 3504,
      "כמובן": 3505,
      "העצ": 3506,
      "ממו": 3507,
      "מוב": 3508,
      "הכנסת": 3509,
      "##יתוח": 3510,
      "הודעה": 3511,
      "ספק": 3512,
      "изра": 3513,
      "##גוד": 3514,
      "אליו": 3515,
      "##ביש": 3516,
      "כיף": 3517,
      "שט": 3518,
      "צריכים": 3519,
      "##כתוב": 3520,
      "מצד": 3521,
      "סג": 3522,
      "נוספים": 3523,
      "שלוש": 3524,
      "הער": 3525,
      "עולה": 3526,
      "נוסף": 3527,
      "50": 3528,
      "24": 3529,
      "איכות": 3530,
      "израиль": 3531,
      "נמצא": 3532,
      "השלי": 3533,
      "##ינה": 3534,
      "חייב": 3535,
      "##זרת": 3536,
      "##ולר": 3537,
      "שס": 3538,
      "##ur": 3539,
      "והא": 3540,
      "יג": 3541,
      "##חרות": 3542,
      "ביי": 3543,
      "##וחר": 3544,
      "ואין": 3545,
      "מיל": 3546,
      "דעת": 3547,
      "##יקים": 3548,
      "ובה": 3549,
      "אכ": 3550,
      "הבח": 3551,
      "רכ": 3552,
      "לפעמים": 3553,
      "##רצ": 3554,
      "לומר": 3555,
      "199": 3556,
      "##בלו": 3557,
      "שמש": 3558,
      "קודם": 3559,
      "##מוע": 3560,
      "שמי": 3561,
      "##uu": 3562,
      "במשך": 3563,
      "אזרח": 3564,
      "##כום": 3565,
      "##מנה": 3566,
      "ככל": 3567,
      "##ופו": 3568,
      "##ובעים": 3569,
      "לראש": 3570,
      "##st": 3571,
      "##ךך": 3572,
      "גרו": 3573,
      "ניק": 3574,
      "הצד": 3575,
      "רשת": 3576,
      "החי": 3577,
      "שגם": 3578,
      "מאח": 3579,
      "##קירה": 3580,
      "והע": 3581,
      "הכול": 3582,
      "בשם": 3583,
      "##od": 3584,
      "תב": 3585,
      "חוץ": 3586,
      "איתי": 3587,
      "עוז": 3588,
      "##טא": 3589,
      "קורה": 3590,
      "##app": 3591,
      "כלי": 3592,
      "ומס": 3593,
      "הישראלי": 3594,
      "והיא": 3595,
      "אולם": 3596,
      "נוע": 3597,
      "##דל": 3598,
      "##סם": 3599,
      "##רפת": 3600,
      "##ומו": 3601,
      "לוק": 3602,
      "ירי": 3603,
      "ומא": 3604,
      "מצח": 3605,
      "##נש": 3606,
      "אינה": 3607,
      "לעולם": 3608,
      "הישראל": 3609,
      "close": 3610,
      "21": 3611,
      "ציו": 3612,
      "לצאת": 3613,
      "שימוש": 3614,
      "חמי": 3615,
      "שיהיה": 3616,
      "תמונות": 3617,
      "מות": 3618,
      "טראמפ": 3619,
      "##זון": 3620,
      "מו": 3621,
      "ברק": 3622,
      "בנוסף": 3623,
      "##פג": 3624,
      "##ow": 3625,
      "עור": 3626,
      "##נייה": 3627,
      "##טיין": 3628,
      "לאח": 3629,
      "##חתי": 3630,
      "##וויר": 3631,
      "##פיה": 3632,
      "גול": 3633,
      "מיד": 3634,
      "בנושא": 3635,
      "##וצת": 3636,
      "תוש": 3637,
      "אבא": 3638,
      "טוע": 3639,
      "חברי": 3640,
      "חיפה": 3641,
      "במקרה": 3642,
      "##מיה": 3643,
      "שהי": 3644,
      "למס": 3645,
      "משל": 3646,
      "באזור": 3647,
      "איט": 3648,
      "##וכן": 3649,
      "ללמוד": 3650,
      "בטח": 3651,
      "האד": 3652,
      "שונות": 3653,
      "החלט": 3654,
      "##ישה": 3655,
      "האמת": 3656,
      "##ושר": 3657,
      "##ייב": 3658,
      "##שיות": 3659,
      "and": 3660,
      "##פסיק": 3661,
      "כות": 3662,
      "זהו": 3663,
      "חג": 3664,
      "##דרים": 3665,
      "טיפול": 3666,
      "מסוג": 3667,
      "פרק": 3668,
      "##ומן": 3669,
      "##יתונ": 3670,
      "##ידים": 3671,
      "בבוקר": 3672,
      "בטוח": 3673,
      "שחק": 3674,
      "שיל": 3675,
      "מחדש": 3676,
      "##יעים": 3677,
      "להק": 3678,
      "שישי": 3679,
      "האל": 3680,
      "##הההה": 3681,
      "##ציאות": 3682,
      "##חקים": 3683,
      "גבר": 3684,
      "אנשי": 3685,
      "לקחת": 3686,
      "מעבר": 3687,
      "כדור": 3688,
      "mor": 3689,
      "אלף": 3690,
      "לטי": 3691,
      "##עיף": 3692,
      "##лиз": 3693,
      "סל": 3694,
      "##ינטרנט": 3695,
      "40": 3696,
      "близ": 3697,
      "ימי": 3698,
      "близко": 3699,
      "פלי": 3700,
      "##מריק": 3701,
      "יהודה": 3702,
      "להז": 3703,
      "מבחי": 3704,
      "##ינג": 3705,
      "למד": 3706,
      "קרא": 3707,
      "##ובעת": 3708,
      "עשו": 3709,
      "ובר": 3710,
      "##ייק": 3711,
      "ואף": 3712,
      "##אא": 3713,
      "##ופות": 3714,
      "מבק": 3715,
      "##ביבה": 3716,
      "לבר": 3717,
      "שרו": 3718,
      "חודשים": 3719,
      "בידי": 3720,
      "rt": 3721,
      "##כך": 3722,
      "הנא": 3723,
      "שאתם": 3724,
      "##שיב": 3725,
      "שאנחנו": 3726,
      "##ונן": 3727,
      "נב": 3728,
      "נז": 3729,
      "##ec": 3730,
      "##כלה": 3731,
      "הרש": 3732,
      "##סות": 3733,
      "המי": 3734,
      "לעבוד": 3735,
      "שיק": 3736,
      "מאמי": 3737,
      "יצחק": 3738,
      "שווה": 3739,
      "להכ": 3740,
      "רכב": 3741,
      "ביט": 3742,
      "סיפור": 3743,
      "htt": 3744,
      "לגמרי": 3745,
      "##יקט": 3746,
      "שנו": 3747,
      "##ילום": 3748,
      "השם": 3749,
      "לאור": 3750,
      "ראיתי": 3751,
      "##נגד": 3752,
      "טקסט": 3753,
      "לחל": 3754,
      "הגב": 3755,
      "##ציג": 3756,
      "ולי": 3757,
      "##שתי": 3758,
      "בנות": 3759,
      "##מלי": 3760,
      "##לחמה": 3761,
      "משק": 3762,
      "הבל": 3763,
      "להח": 3764,
      "חיל": 3765,
      "אומרת": 3766,
      "מהת": 3767,
      "ha": 3768,
      "היית": 3769,
      "כוס": 3770,
      "אוב": 3771,
      "בעוד": 3772,
      "##בב": 3773,
      "בעי": 3774,
      "תס": 3775,
      "צפו": 3776,
      "יהודים": 3777,
      "כהן": 3778,
      "יעקב": 3779,
      "##מאות": 3780,
      "המוש": 3781,
      "##צלחה": 3782,
      "##זב": 3783,
      "המשטרה": 3784,
      "##ורג": 3785,
      "פעמים": 3786,
      "22": 3787,
      "##ציב": 3788,
      "##און": 3789,
      "לוי": 3790,
      "טובים": 3791,
      "מפל": 3792,
      "##סוף": 3793,
      "בעת": 3794,
      "ארי": 3795,
      "ואי": 3796,
      "שונאת": 3797,
      "לקראת": 3798,
      "יהיו": 3799,
      "לשם": 3800,
      "השק": 3801,
      "אומרים": 3802,
      "האיש": 3803,
      "##ויים": 3804,
      "##ut": 3805,
      "##וקי": 3806,
      "on": 3807,
      "קצ": 3808,
      "##כוד": 3809,
      "שלושה": 3810,
      "##ov": 3811,
      "##וביץ": 3812,
      "##ורר": 3813,
      "יוש": 3814,
      "מיק": 3815,
      "##דיו": 3816,
      "##שן": 3817,
      "##פית": 3818,
      "שכן": 3819,
      "##נין": 3820,
      "האחרונות": 3821,
      "במי": 3822,
      "בינ": 3823,
      "המוס": 3824,
      "האתר": 3825,
      "תז": 3826,
      "אתר": 3827,
      "לשל": 3828,
      "המג": 3829,
      "מתחיל": 3830,
      "##סקי": 3831,
      "לישראל": 3832,
      "מיני": 3833,
      "##רוק": 3834,
      "##שש": 3835,
      "##תרון": 3836,
      "תד": 3837,
      "הלו": 3838,
      "עשה": 3839,
      "הפועל": 3840,
      "##רונים": 3841,
      "ביו": 3842,
      "pr": 3843,
      "##ובת": 3844,
      "##מוקר": 3845,
      "האמריק": 3846,
      "##ולת": 3847,
      "מהש": 3848,
      "##ווח": 3849,
      "##ליף": 3850,
      "השנים": 3851,
      "נר": 3852,
      "##מיות": 3853,
      "מקור": 3854,
      "##נדר": 3855,
      "##הבה": 3856,
      "אלוהים": 3857,
      "חדשים": 3858,
      "התר": 3859,
      "##ואב": 3860,
      "מילי": 3861,
      "##כתי": 3862,
      "##סר": 3863,
      "##שיבות": 3864,
      "##וניברסי": 3865,
      "##ניסה": 3866,
      "יהודי": 3867,
      "בתיק": 3868,
      "הלילה": 3869,
      "ומי": 3870,
      "לנס": 3871,
      "בבי": 3872,
      "##סון": 3873,
      "שבא": 3874,
      "אתכם": 3875,
      "הרח": 3876,
      "##נצ": 3877,
      "עליהם": 3878,
      "ענק": 3879,
      "שד": 3880,
      "בהתאם": 3881,
      "משפחת": 3882,
      "##נתה": 3883,
      "##ימה": 3884,
      "וואלה": 3885,
      "המכ": 3886,
      "הבר": 3887,
      "http": 3888,
      "והה": 3889,
      "יוסף": 3890,
      "ידע": 3891,
      "פיצ": 3892,
      "##טיס": 3893,
      "כלומר": 3894,
      "פעילות": 3895,
      "לטוב": 3896,
      "##ישור": 3897,
      "##טיח": 3898,
      "##ושת": 3899,
      "לוח": 3900,
      "כגון": 3901,
      "ליה": 3902,
      "##מיכה": 3903,
      "לאורך": 3904,
      "##וסים": 3905,
      "ניה": 3906,
      "יוצא": 3907,
      "זר": 3908,
      "##ers": 3909,
      "##ab": 3910,
      "ואל": 3911,
      "חבל": 3912,
      "האופ": 3913,
      "טור": 3914,
      "במת": 3915,
      "מאשר": 3916,
      "ביד": 3917,
      "##וסיף": 3918,
      "פנים": 3919,
      "והח": 3920,
      "החדשה": 3921,
      "איתך": 3922,
      "##יג": 3923,
      "##פיים": 3924,
      "תצ": 3925,
      "##יוע": 3926,
      "להא": 3927,
      "כדאי": 3928,
      "איל": 3929,
      "מנסה": 3930,
      "##רכב": 3931,
      "אישה": 3932,
      "צורך": 3933,
      "היד": 3934,
      "לחזור": 3935,
      "ארה": 3936,
      "המקום": 3937,
      "לצד": 3938,
      "##ריב": 3939,
      "וחצי": 3940,
      "נחש": 3941,
      "בכך": 3942,
      "מהא": 3943,
      "##וויה": 3944,
      "משום": 3945,
      "איתו": 3946,
      "##ומיים": 3947,
      "התש": 3948,
      "לשע": 3949,
      "##וגר": 3950,
      "new": 3951,
      "דברי": 3952,
      "ההס": 3953,
      "##zak": 3954,
      "miv": 3955,
      "##כוי": 3956,
      "סיפ": 3957,
      "חופ": 3958,
      "lt": 3959,
      "פעולה": 3960,
      "##ומרים": 3961,
      "היהודי": 3962,
      "מידי": 3963,
      "קש": 3964,
      "##גב": 3965,
      "you": 3966,
      "##ליל": 3967,
      "##וזי": 3968,
      "המון": 3969,
      "מאפשר": 3970,
      "הבעיה": 3971,
      "רמת": 3972,
      "mivzak": 3973,
      "##onapp": 3974,
      "שמא": 3975,
      "mivzakonapp": 3976,
      "מהע": 3977,
      "##סור": 3978,
      "העם": 3979,
      "להסת": 3980,
      "##רבה": 3981,
      "ולע": 3982,
      "דני": 3983,
      "ישראלי": 3984,
      "##לונות": 3985,
      "##וניות": 3986,
      "למת": 3987,
      "מהח": 3988,
      "##שהי": 3989,
      "סמ": 3990,
      "בעיה": 3991,
      "לבן": 3992,
      "מדינה": 3993,
      "לשמוע": 3994,
      "הברית": 3995,
      "מקווה": 3996,
      "המשפחה": 3997,
      "##מרים": 3998,
      "##סיס": 3999,
      "בטי": 4000,
      "##כרון": 4001,
      "שרי": 4002,
      "הבנתי": 4003,
      "##מצא": 4004,
      "re": 4005,
      "גן": 4006,
      "##בירה": 4007,
      "##ודל": 4008,
      "##מפי": 4009,
      "האנשים": 4010,
      "##סס": 4011,
      "גבוהה": 4012,
      "צוות": 4013,
      "##וטין": 4014,
      "שנע": 4015,
      "כע": 4016,
      "שהיו": 4017,
      "כיצד": 4018,
      "##ויי": 4019,
      "##un": 4020,
      "##יתון": 4021,
      "סר": 4022,
      "##ודר": 4023,
      "חודש": 4024,
      "ללי": 4025,
      "##רוס": 4026,
      "הקט": 4027,
      "הוצ": 4028,
      "שצריך": 4029,
      "חשבתי": 4030,
      "כוחות": 4031,
      "דוג": 4032,
      "##נאים": 4033,
      "מדבר": 4034,
      "הטר": 4035,
      "קצר": 4036,
      "התובע": 4037,
      "החר": 4038,
      "##מץ": 4039,
      "##מרת": 4040,
      "מאת": 4041,
      "מקר": 4042,
      "##טיות": 4043,
      "##גיעה": 4044,
      "הסת": 4045,
      "הכת": 4046,
      "##ни": 4047,
      "עניין": 4048,
      "הפי": 4049,
      "מאות": 4050,
      "ידוע": 4051,
      "בדר": 4052,
      "05": 4053,
      "דולר": 4054,
      "23": 4055,
      "##שתו": 4056,
      "מונ": 4057,
      "##סיק": 4058,
      "ורק": 4059,
      "הוב": 4060,
      "בנק": 4061,
      "##אפ": 4062,
      "עובדים": 4063,
      "החינוך": 4064,
      "##אור": 4065,
      "לידי": 4066,
      "##כולת": 4067,
      "שלמה": 4068,
      "##ul": 4069,
      "##נסים": 4070,
      "שהמ": 4071,
      "וכו": 4072,
      "##וויזיה": 4073,
      "ממני": 4074,
      "בשבוע": 4075,
      "am": 4076,
      "מצא": 4077,
      "##פוי": 4078,
      "אוו": 4079,
      "בעצם": 4080,
      "##רבית": 4081,
      "##פרד": 4082,
      "מסי": 4083,
      "more": 4084,
      "ארג": 4085,
      "לעומת": 4086,
      "##לן": 4087,
      "ch": 4088,
      "##משים": 4089,
      "יפו": 4090,
      "##מונים": 4091,
      "##כונות": 4092,
      "אכן": 4093,
      "הביטחון": 4094,
      "צד": 4095,
      "צבע": 4096,
      "בור": 4097,
      "עק": 4098,
      "##עיון": 4099,
      "מכן": 4100,
      "האחרונה": 4101,
      "בינו": 4102,
      "##רוך": 4103,
      "##ברג": 4104,
      "##ליו": 4105,
      "##אללה": 4106,
      "הכר": 4107,
      "##וכנית": 4108,
      "##יתים": 4109,
      "והם": 4110,
      "הישראלית": 4111,
      "##גדל": 4112,
      "המשחק": 4113,
      "רואים": 4114,
      "תפקיד": 4115,
      "בשעה": 4116,
      "מערכות": 4117,
      "מומל": 4118,
      "לימוד": 4119,
      "##דיין": 4120,
      "חזק": 4121,
      "שמאל": 4122,
      "##יינו": 4123,
      "##ריז": 4124,
      "אינם": 4125,
      "ביחד": 4126,
      "##ייט": 4127,
      "כז": 4128,
      "מראש": 4129,
      "ושי": 4130,
      "אחרות": 4131,
      "ובכל": 4132,
      "##ייע": 4133,
      "השפ": 4134,
      "להביא": 4135,
      "##מידים": 4136,
      "##דינות": 4137,
      "יז": 4138,
      "בסיס": 4139,
      "ובא": 4140,
      "מחז": 4141,
      "שנית": 4142,
      "##יתות": 4143,
      "מחפ": 4144,
      "תיא": 4145,
      "והפ": 4146,
      "com": 4147,
      "שהע": 4148,
      "הבאה": 4149,
      "בשנה": 4150,
      "##20": 4151,
      "##פילו": 4152,
      "##וקת": 4153,
      "לחשוב": 4154,
      "נשיא": 4155,
      "למעשה": 4156,
      "כשאת": 4157,
      "מתחת": 4158,
      "אמיתי": 4159,
      "בקשה": 4160,
      "במרכז": 4161,
      "התקשורת": 4162,
      "##שום": 4163,
      "הביתה": 4164,
      "##קשר": 4165,
      "כעת": 4166,
      "לאכול": 4167,
      "##מרו": 4168,
      "בקרב": 4169,
      "##מניה": 4170,
      "פסי": 4171,
      "##ונג": 4172,
      "##מום": 4173,
      "##פוס": 4174,
      "##ידת": 4175,
      "##נועה": 4176,
      "198": 4177,
      "##יץ": 4178,
      "al": 4179,
      "הנשיא": 4180,
      "##op": 4181,
      "בול": 4182,
      "בשבת": 4183,
      "##um": 4184,
      "מדהים": 4185,
      "סופ": 4186,
      "##ותם": 4187,
      "ברא": 4188,
      "##מנית": 4189,
      "הלק": 4190,
      "ומח": 4191,
      "למען": 4192,
      "משפחה": 4193,
      "##פרים": 4194,
      "מסע": 4195,
      "חומרים": 4196,
      "ההג": 4197,
      "##גישה": 4198,
      "האיר": 4199,
      "בפייסבוק": 4200,
      "מתאים": 4201,
      "שאלה": 4202,
      "##ופעה": 4203,
      "נט": 4204,
      "##גם": 4205,
      "2016": 4206,
      "##גרם": 4207,
      "תומ": 4208,
      "##זרה": 4209,
      "בפי": 4210,
      "בגיל": 4211,
      "תהליך": 4212,
      "לסי": 4213,
      "הצל": 4214,
      "##וגה": 4215,
      "הטל": 4216,
      "עצמה": 4217,
      "ניסיון": 4218,
      "##ניינים": 4219,
      "מזרח": 4220,
      "לבצע": 4221,
      "##מודד": 4222,
      "להמשיך": 4223,
      "הפעם": 4224,
      "חופש": 4225,
      "הרפ": 4226,
      "##סטר": 4227,
      "##אג": 4228,
      "##צית": 4229,
      "אישי": 4230,
      "מתע": 4231,
      "המצב": 4232,
      "be": 4233,
      "וני": 4234,
      "צוד": 4235,
      "התג": 4236,
      "##כנית": 4237,
      "##ורם": 4238,
      "משא": 4239,
      "מחכה": 4240,
      "מעור": 4241,
      "מילה": 4242,
      "##כרת": 4243,
      "הפרו": 4244,
      "זק": 4245,
      "שות": 4246,
      "שופ": 4247,
      "נמ": 4248,
      "פיר": 4249,
      "זכויות": 4250,
      "השמאל": 4251,
      "מתה": 4252,
      "מפני": 4253,
      "שונה": 4254,
      "גבי": 4255,
      "##אלו": 4256,
      "חק": 4257,
      "באותו": 4258,
      "האמ": 4259,
      "see": 4260,
      "בעבר": 4261,
      "##ter": 4262,
      "##תיק": 4263,
      "##דרי": 4264,
      "לטע": 4265,
      "de": 4266,
      "ותרגום": 4267,
      "אמרתי": 4268,
      "##net": 4269,
      "והס": 4270,
      "בוד": 4271,
      "הצע": 4272,
      "לאנשים": 4273,
      "שז": 4274,
      "מצחיק": 4275,
      "##ורס": 4276,
      "זי": 4277,
      "סיי": 4278,
      "הפנים": 4279,
      "אגב": 4280,
      "##מחה": 4281,
      "צו": 4282,
      "בהחלט": 4283,
      "עיי": 4284,
      "ריב": 4285,
      "למעלה": 4286,
      "ספורט": 4287,
      "דומה": 4288,
      "בשנים": 4289,
      "שינוי": 4290,
      "##דוד": 4291,
      "שהח": 4292,
      "##גרות": 4293,
      "##כונים": 4294,
      "בוא": 4295,
      "ונו": 4296,
      "נכ": 4297,
      "התורה": 4298,
      "##רגל": 4299,
      "לשעבר": 4300,
      "להשתמש": 4301,
      "היסט": 4302,
      "ממנה": 4303,
      "ברוך": 4304,
      "נשמע": 4305,
      "##ותי": 4306,
      "תוכלו": 4307,
      "בסרט": 4308,
      "בעיני": 4309,
      "מנהל": 4310,
      "לעבור": 4311,
      "ושל": 4312,
      "נוספת": 4313,
      "חוב": 4314,
      "השנייה": 4315,
      "המשת": 4316,
      "ובמ": 4317,
      "הולדת": 4318,
      "קא": 4319,
      "רצי": 4320,
      "##פיל": 4321,
      "פק": 4322,
      "##כוו": 4323,
      "##יוס": 4324,
      "מרגיש": 4325,
      "שאם": 4326,
      "##ראית": 4327,
      "אול": 4328,
      "חיפ": 4329,
      "##בש": 4330,
      "##עש": 4331,
      "המלא": 4332,
      "הגוף": 4333,
      "##דד": 4334,
      "##וטים": 4335,
      "ומק": 4336,
      "הקשר": 4337,
      "ליום": 4338,
      "חושבת": 4339,
      "הרגע": 4340,
      "האירוע": 4341,
      "הפלסטי": 4342,
      "##ארד": 4343,
      "קטנה": 4344,
      "##ושי": 4345,
      "אחוז": 4346,
      "עונה": 4347,
      "חכ": 4348,
      "##נויים": 4349,
      "##ess": 4350,
      "##יינים": 4351,
      "לשמור": 4352,
      "לעבודה": 4353,
      "##יט": 4354,
      "השאלה": 4355,
      "להור": 4356,
      "##רגיש": 4357,
      "##לקת": 4358,
      "עשרות": 4359,
      "##av": 4360,
      "מפת": 4361,
      "אותן": 4362,
      "##למת": 4363,
      "##😍😍": 4364,
      "##וכב": 4365,
      "לני": 4366,
      "פלסטי": 4367,
      "הילד": 4368,
      "##כנה": 4369,
      "ובת": 4370,
      "##רון": 4371,
      "כלפי": 4372,
      "קפה": 4373,
      "##חון": 4374,
      "##וווו": 4375,
      "##זקים": 4376,
      "מבינה": 4377,
      "סרטון": 4378,
      "טכנ": 4379,
      "בעניין": 4380,
      "גלי": 4381,
      "חב": 4382,
      "אסור": 4383,
      "מכיר": 4384,
      "##ףף": 4385,
      "שמה": 4386,
      "##שתה": 4387,
      "##וספת": 4388,
      "גא": 4389,
      "##שייה": 4390,
      "המפ": 4391,
      "בעזרת": 4392,
      "##דיה": 4393,
      "לתק": 4394,
      "אמת": 4395,
      "הסט": 4396,
      "##est": 4397,
      "##פרסם": 4398,
      "מקבל": 4399,
      "##ברהם": 4400,
      "בתור": 4401,
      "מילים": 4402,
      "##אק": 4403,
      "##פייה": 4404,
      "עצמם": 4405,
      "מעצ": 4406,
      "ויר": 4407,
      "לילדים": 4408,
      "הסיפור": 4409,
      "##כנון": 4410,
      "ליו": 4411,
      "עת": 4412,
      "הללו": 4413,
      "מעולה": 4414,
      "נעשה": 4415,
      "סק": 4416,
      "לכתוב": 4417,
      "מדוע": 4418,
      "##בנה": 4419,
      "##ינוי": 4420,
      "העי": 4421,
      "לבחור": 4422,
      "90": 4423,
      "חומרי": 4424,
      "##ליטה": 4425,
      "הוכ": 4426,
      "##ריט": 4427,
      "##שורת": 4428,
      "ממה": 4429,
      "המז": 4430,
      "צבי": 4431,
      "##דרש": 4432,
      "60": 4433,
      "בגין": 4434,
      "היינו": 4435,
      "סת": 4436,
      "במצב": 4437,
      "כמות": 4438,
      "קד": 4439,
      "המוצ": 4440,
      "הקד": 4441,
      "וט": 4442,
      "##ואלי": 4443,
      "סול": 4444,
      "היתר": 4445,
      "צילום": 4446,
      "##וביל": 4447,
      "עליך": 4448,
      "הטבע": 4449,
      "2015": 4450,
      "##זית": 4451,
      "שמד": 4452,
      "##דמנות": 4453,
      "##ik": 4454,
      "עומד": 4455,
      "זכות": 4456,
      "לעמוד": 4457,
      "ערך": 4458,
      "##כוח": 4459,
      "בבקשה": 4460,
      "צבא": 4461,
      "נפג": 4462,
      "שחר": 4463,
      "##וסק": 4464,
      "##מדו": 4465,
      "פתאום": 4466,
      "התפ": 4467,
      "לקנות": 4468,
      "##יסטוריה": 4469,
      "בחי": 4470,
      "בואו": 4471,
      "##רוג": 4472,
      "un": 4473,
      "עבוד": 4474,
      "קיים": 4475,
      "ווי": 4476,
      "##ריקה": 4477,
      "ברגע": 4478,
      "דיווח": 4479,
      "##טרף": 4480,
      "##if": 4481,
      "החבר": 4482,
      "ממשלת": 4483,
      "הים": 4484,
      "ליצור": 4485,
      "##כרה": 4486,
      "האש": 4487,
      "הציו": 4488,
      "ויו": 4489,
      "##ורית": 4490,
      "אישית": 4491,
      "רוטר": 4492,
      "עיצוב": 4493,
      "for": 4494,
      "ראי": 4495,
      "##ost": 4496,
      "##נסט": 4497,
      "עבד": 4498,
      "##מדה": 4499,
      "מבית": 4500,
      "וכך": 4501,
      "##נגלית": 4502,
      "תרבות": 4503,
      "##קיים": 4504,
      "היהודים": 4505,
      "בבר": 4506,
      "מגוון": 4507,
      "השירות": 4508,
      "##סו": 4509,
      "תורה": 4510,
      "עובר": 4511,
      "שירותי": 4512,
      "##לילה": 4513,
      "לבני": 4514,
      "בחש": 4515,
      "להר": 4516,
      "שיד": 4517,
      "אלפי": 4518,
      "##ation": 4519,
      "##כלית": 4520,
      "השיר": 4521,
      "בהמשך": 4522,
      "תקשורת": 4523,
      "חייבת": 4524,
      "זוה": 4525,
      "ברחוב": 4526,
      "חשמל": 4527,
      "שהש": 4528,
      "##05": 4529,
      "היחיד": 4530,
      "##פך": 4531,
      "ייש": 4532,
      "פיק": 4533,
      "ויצ": 4534,
      "הפולי": 4535,
      "לדי": 4536,
      "ארגון": 4537,
      "##ראים": 4538,
      "##ill": 4539,
      "##כבת": 4540,
      "המשך": 4541,
      "##לוו": 4542,
      "מאמין": 4543,
      "במידה": 4544,
      "חסר": 4545,
      "לכולם": 4546,
      "נצ": 4547,
      "##ומט": 4548,
      "##ер": 4549,
      "סע": 4550,
      "194": 4551,
      "אחי": 4552,
      "##ah": 4553,
      "רה": 4554,
      "באותה": 4555,
      "סב": 4556,
      "עקב": 4557,
      "##ריכה": 4558,
      "הצבא": 4559,
      "##ניח": 4560,
      "הולכת": 4561,
      "גדולים": 4562,
      "197": 4563,
      "##ודעה": 4564,
      "חתי": 4565,
      "26": 4566,
      "בלילה": 4567,
      "נפש": 4568,
      "לצורך": 4569,
      "עלינו": 4570,
      "בשוק": 4571,
      "המר": 4572,
      "ברשת": 4573,
      "להתע": 4574,
      "התל": 4575,
      "פאר": 4576,
      "העסק": 4577,
      "רומ": 4578,
      "##תים": 4579,
      "##ов": 4580,
      "##בלות": 4581,
      "##חדים": 4582,
      "2017": 4583,
      "מסוי": 4584,
      "גברים": 4585,
      "##וזה": 4586,
      "כפ": 4587,
      "ביל": 4588,
      "סוגי": 4589,
      "מלך": 4590,
      "מלחמת": 4591,
      "##הליך": 4592,
      "מקצועי": 4593,
      "ניר": 4594,
      "מקרה": 4595,
      "##ועדה": 4596,
      "קרוב": 4597,
      "שאפשר": 4598,
      "קוראים": 4599,
      "והצ": 4600,
      "בנט": 4601,
      "השבת": 4602,
      "לפיד": 4603,
      "ישר": 4604,
      "ולש": 4605,
      "מהס": 4606,
      "ארץ": 4607,
      "חמ": 4608,
      "ניהול": 4609,
      "רופ": 4610,
      "##נתו": 4611,
      "כשאני": 4612,
      "לבע": 4613,
      "##ניי": 4614,
      "הקבוצה": 4615,
      "בארה": 4616,
      "נתבעים": 4617,
      "בטל": 4618,
      "נורא": 4619,
      "למקום": 4620,
      "עלה": 4621,
      "##לטון": 4622,
      "27": 4623,
      "אוק": 4624,
      "##ist": 4625,
      "##ст": 4626,
      "##רוני": 4627,
      "מאיר": 4628,
      "##פקת": 4629,
      "מומלץ": 4630,
      "האחרונים": 4631,
      "##יתית": 4632,
      "שבר": 4633,
      "יפ": 4634,
      "##טרת": 4635,
      "חדר": 4636,
      "ynet": 4637,
      "##og": 4638,
      "בזכות": 4639,
      "הרכב": 4640,
      "ביר": 4641,
      "תקווה": 4642,
      "תוכנית": 4643,
      "פסק": 4644,
      "ויד": 4645,
      "זוכ": 4646,
      "מכש": 4647,
      "שאי": 4648,
      "מהה": 4649,
      "קבוצת": 4650,
      "צל": 4651,
      "##ייצ": 4652,
      "עליי": 4653,
      "כולנו": 4654,
      "##יעות": 4655,
      "##יף": 4656,
      "##נויות": 4657,
      "האור": 4658,
      "##ri": 4659,
      "הסכם": 4660,
      "##חוד": 4661,
      "##עון": 4662,
      "אמנם": 4663,
      "קיד": 4664,
      "חרי": 4665,
      "##xx": 4666,
      "##שיג": 4667,
      "בימים": 4668,
      "באמצע": 4669,
      "תובעים": 4670,
      "28": 4671,
      "מאי": 4672,
      "עין": 4673,
      "##פסת": 4674,
      "מחוץ": 4675,
      "במא": 4676,
      "##לקה": 4677,
      "חוזר": 4678,
      "כנגד": 4679,
      "##יצור": 4680,
      "לעזור": 4681,
      "אבן": 4682,
      "משות": 4683,
      "באה": 4684,
      "המוז": 4685,
      "שיכול": 4686,
      "בהן": 4687,
      "חחחח": 4688,
      "##ייי": 4689,
      "שו": 4690,
      "לראשונה": 4691,
      "לחיות": 4692,
      "מרי": 4693,
      "##יבוץ": 4694,
      "האוויר": 4695,
      "שמס": 4696,
      "העובדה": 4697,
      "לשת": 4698,
      "מלאה": 4699,
      "עדיף": 4700,
      "ריצ": 4701,
      "הגדולה": 4702,
      "להעביר": 4703,
      "בשר": 4704,
      "המים": 4705,
      "##וטו": 4706,
      "טרור": 4707,
      "היחידה": 4708,
      "##טיב": 4709,
      "פרסום": 4710,
      "##פתחות": 4711,
      "היש": 4712,
      "אברהם": 4713,
      "סביב": 4714,
      "לבדוק": 4715,
      "ראשונה": 4716,
      "מאחורי": 4717,
      "רוס": 4718,
      "בניה": 4719,
      "המשי": 4720,
      "##פרט": 4721,
      "חוסר": 4722,
      "אמריק": 4723,
      "##רחב": 4724,
      "החולים": 4725,
      "קטנים": 4726,
      "ריק": 4727,
      "##חלטה": 4728,
      "לספר": 4729,
      "משע": 4730,
      "##וטוב": 4731,
      "##הילה": 4732,
      "יקרה": 4733,
      "##בעות": 4734,
      "ההצ": 4735,
      "לשנות": 4736,
      "סא": 4737,
      "ייע": 4738,
      "בריאות": 4739,
      "ממשי": 4740,
      "נשאר": 4741,
      "שירים": 4742,
      "##זרים": 4743,
      "באש": 4744,
      "הצדדים": 4745,
      "הקול": 4746,
      "##ורא": 4747,
      "לאומי": 4748,
      "ממך": 4749,
      "חשבון": 4750,
      "לאחרונה": 4751,
      "האוכל": 4752,
      "מראה": 4753,
      "ועכשיו": 4754,
      "פרטי": 4755,
      "ראה": 4756,
      "אוהבים": 4757,
      "70": 4758,
      "##ייץ": 4759,
      "שכבר": 4760,
      "קני": 4761,
      "להתחיל": 4762,
      "##רגיה": 4763,
      "##וונה": 4764,
      "##מנט": 4765,
      "##ונס": 4766,
      "##גיד": 4767,
      "##th": 4768,
      "שקלים": 4769,
      "##כנת": 4770,
      "בחיפה": 4771,
      "##ביעות": 4772,
      "##חילת": 4773,
      "##סקה": 4774,
      "##רכו": 4775,
      "כרגע": 4776,
      "ייח": 4777,
      "ממשלה": 4778,
      "##ייד": 4779,
      "שעבר": 4780,
      "נתן": 4781,
      "בערב": 4782,
      "הרע": 4783,
      "אפשרות": 4784,
      "##טיקה": 4785,
      "##קרים": 4786,
      "אהבתי": 4787,
      "הפת": 4788,
      "נותן": 4789,
      "האר": 4790,
      "##רגיל": 4791,
      "מתא": 4792,
      "##וגי": 4793,
      "##נאה": 4794,
      "##oc": 4795,
      "##ידן": 4796,
      "הצה": 4797,
      "סיבה": 4798,
      "ימ": 4799,
      "חפ": 4800,
      "שנק": 4801,
      "##נצי": 4802,
      "וכי": 4803,
      "פוע": 4804,
      "מעולם": 4805,
      "ספרים": 4806,
      "להוציא": 4807,
      "גורם": 4808,
      "##טרים": 4809,
      "חמש": 4810,
      "##דיק": 4811,
      "##חרר": 4812,
      "##נהגות": 4813,
      "##טיה": 4814,
      "רשות": 4815,
      "35": 4816,
      "לשחק": 4817,
      "לחץ": 4818,
      "שהא": 4819,
      "ולק": 4820,
      "ניו": 4821,
      "קומ": 4822,
      "הינו": 4823,
      "הנס": 4824,
      "העונה": 4825,
      "##יעו": 4826,
      "##גרים": 4827,
      "הבחירות": 4828,
      "איטום": 4829,
      "באלי": 4830,
      "##שלום": 4831,
      "ואפילו": 4832,
      "אמרה": 4833,
      "##טיק": 4834,
      "לומ": 4835,
      "##טרון": 4836,
      "נושא": 4837,
      "##בצע": 4838,
      "לחלוטין": 4839,
      "החת": 4840,
      "##and": 4841,
      "2011": 4842,
      "מין": 4843,
      "##שימת": 4844,
      "ליבר": 4845,
      "מעלה": 4846,
      "עץ": 4847,
      "##כירה": 4848,
      "ביצוע": 4849,
      "כזאת": 4850,
      "חולה": 4851,
      "ביטוח": 4852,
      "לרו": 4853,
      "קבוע": 4854,
      "מבלי": 4855,
      "##יתו": 4856,
      "לאל": 4857,
      "הוג": 4858,
      "חייבים": 4859,
      "בספר": 4860,
      "שהצ": 4861,
      "29": 4862,
      "##בחרת": 4863,
      "פיתוח": 4864,
      "##וגרים": 4865,
      "הגיעו": 4866,
      "##חושה": 4867,
      "##נל": 4868,
      "##וים": 4869,
      "##פשרות": 4870,
      "ברחבי": 4871,
      "דרי": 4872,
      "המלך": 4873,
      "##וטה": 4874,
      "לציון": 4875,
      "לשלם": 4876,
      "##ושה": 4877,
      "להחז": 4878,
      "פיגוע": 4879,
      "עוק": 4880,
      "בשלב": 4881,
      "השל": 4882,
      "ציון": 4883,
      "בעד": 4884,
      "המקצוע": 4885,
      "##מדים": 4886,
      "מדברים": 4887,
      "לחי": 4888,
      "##חלה": 4889,
      "##דבר": 4890,
      "##ודע": 4891,
      "טרי": 4892,
      "חינם": 4893,
      "כזו": 4894,
      "לכפר": 4895,
      "##ct": 4896,
      "שער": 4897,
      "##והה": 4898,
      "##מינו": 4899,
      "עסקים": 4900,
      "במדינה": 4901,
      "הכבוד": 4902,
      "ועם": 4903,
      "הזוג": 4904,
      "2018": 4905,
      "ולהת": 4906,
      "##באי": 4907,
      "ביה": 4908,
      "והן": 4909,
      "##כנים": 4910,
      "196": 4911,
      "סליחה": 4912,
      "התחת": 4913,
      "ובש": 4914,
      "en": 4915,
      "תקופה": 4916,
      "קונ": 4917,
      "בניגוד": 4918,
      "המבק": 4919,
      "פלא": 4920,
      "ישי": 4921,
      "פוג": 4922,
      "באיר": 4923,
      "להתי": 4924,
      "נוכ": 4925,
      "##מדת": 4926,
      "הפרי": 4927,
      "##מויות": 4928,
      "##בחן": 4929,
      "##נור": 4930,
      "המידע": 4931,
      "אבו": 4932,
      "באל": 4933,
      "שיא": 4934,
      "ההורים": 4935,
      "##כוון": 4936,
      "ראשי": 4937,
      "אוט": 4938,
      "חם": 4939,
      "חזר": 4940,
      "בלא": 4941,
      "##מידה": 4942,
      "שרה": 4943,
      "עיתונ": 4944,
      "שלישי": 4945,
      "יורק": 4946,
      "אוויר": 4947,
      "2012": 4948,
      "ברמה": 4949,
      "הוק": 4950,
      "##צעים": 4951,
      "מצוי": 4952,
      "##פוץ": 4953,
      "##מב": 4954,
      "תופ": 4955,
      "ירו": 4956,
      "הומ": 4957,
      "דלת": 4958,
      "לשים": 4959,
      "ערבי": 4960,
      "חיצוני": 4961,
      "נולד": 4962,
      "me": 4963,
      "נפת": 4964,
      "כאמור": 4965,
      "עלייך": 4966,
      "בצי": 4967,
      "##מכים": 4968,
      "היטב": 4969,
      "##נקים": 4970,
      "שור": 4971,
      "שנתיים": 4972,
      "##שמים": 4973,
      "הסכ": 4974,
      "##ודו": 4975,
      "דירה": 4976,
      "##סטית": 4977,
      "מוכן": 4978,
      "לבוא": 4979,
      "גרי": 4980,
      "##פיות": 4981,
      "##דיים": 4982,
      "הגז": 4983,
      "##ובב": 4984,
      "סוכ": 4985,
      "העיקר": 4986,
      "##סוק": 4987,
      "ילדה": 4988,
      "שמן": 4989,
      "לפנות": 4990,
      "להיש": 4991,
      "הבריאות": 4992,
      "ארבע": 4993,
      "רכי": 4994,
      "קורא": 4995,
      "סד": 4996,
      "##וער": 4997,
      "קוד": 4998,
      "נקודות": 4999,
      "הקרי": 5000,
      "##טג": 5001,
      "אמור": 5002,
      "##סום": 5003,
      "פות": 5004,
      "##10": 5005,
      "##ны": 5006,
      "##נתן": 5007,
      "המנה": 5008,
      "אמרו": 5009,
      "##יהן": 5010,
      "שאר": 5011,
      "##לאות": 5012,
      "סדר": 5013,
      "##וגים": 5014,
      "המופ": 5015,
      "להלן": 5016,
      "##פלגה": 5017,
      "מכת": 5018,
      "המאה": 5019,
      "המער": 5020,
      "דרכים": 5021,
      "##טט": 5022,
      "נמאס": 5023,
      "מדינות": 5024,
      "##פעל": 5025,
      "##ההה": 5026,
      "מהפ": 5027,
      "##ובד": 5028,
      "לבנות": 5029,
      "לדעתי": 5030,
      "למנוע": 5031,
      "con": 5032,
      "דח": 5033,
      "ברמת": 5034,
      "פתי": 5035,
      "ומצ": 5036,
      "ענ": 5037,
      "מדו": 5038,
      "ועדת": 5039,
      "ראו": 5040,
      "as": 5041,
      "שאינו": 5042,
      "להיכנס": 5043,
      "מבח": 5044,
      "נוספות": 5045,
      "שקר": 5046,
      "משחקים": 5047,
      "ארוך": 5048,
      "##ייך": 5049,
      "##מנת": 5050,
      "##נוס": 5051,
      "בצפון": 5052,
      "נעים": 5053,
      "שכר": 5054,
      "ירד": 5055,
      "##ווית": 5056,
      "##ok": 5057,
      "טיס": 5058,
      "יחסית": 5059,
      "בחר": 5060,
      "##אורה": 5061,
      "הקל": 5062,
      "לרוב": 5063,
      "מעוני": 5064,
      "בעיות": 5065,
      "אחריות": 5066,
      "הבן": 5067,
      "##םםםם": 5068,
      "אייל": 5069,
      "80": 5070,
      "ליצ": 5071,
      "##יפים": 5072,
      "לרכ": 5073,
      "ניש": 5074,
      "קופ": 5075,
      "בך": 5076,
      "בטון": 5077,
      "כשהוא": 5078,
      "##ודנטים": 5079,
      "מותר": 5080,
      "##עדי": 5081,
      "##נטית": 5082,
      "##uuuu": 5083,
      "להתא": 5084,
      "##ולוגי": 5085,
      "##חוק": 5086,
      "##הוב": 5087,
      "לדברי": 5088,
      "סעיף": 5089,
      "מפר": 5090,
      "ביקורת": 5091,
      "צור": 5092,
      "להד": 5093,
      "##שויות": 5094,
      "לעז": 5095,
      "09": 5096,
      "ביחס": 5097,
      "##ועה": 5098,
      "##מלה": 5099,
      "המלחמה": 5100,
      "לקוחות": 5101,
      "##שמה": 5102,
      "בצד": 5103,
      "לחוק": 5104,
      "מלב": 5105,
      "בפעם": 5106,
      "האנו": 5107,
      "נשא": 5108,
      "מיום": 5109,
      "עמוד": 5110,
      "##ce": 5111,
      "##חלון": 5112,
      "בהצלחה": 5113,
      "כשר": 5114,
      "שוא": 5115,
      "קבלת": 5116,
      "##תיע": 5117,
      "ברג": 5118,
      "לדוג": 5119,
      "ממלי": 5120,
      "הטיפול": 5121,
      "##וניים": 5122,
      "פרח": 5123,
      "##וקף": 5124,
      "השימוש": 5125,
      "אצלי": 5126,
      "##מוס": 5127,
      "ואתה": 5128,
      "מושלם": 5129,
      "##אני": 5130,
      "רצח": 5131,
      "צינ": 5132,
      "הנק": 5133,
      "מבחינת": 5134,
      "##טס": 5135,
      "מתנה": 5136,
      "##כרו": 5137,
      "בוח": 5138,
      "רקע": 5139,
      "03": 5140,
      "הקוד": 5141,
      "הלוואי": 5142,
      "שרק": 5143,
      "פתח": 5144,
      "מכירים": 5145,
      "בסופו": 5146,
      "תור": 5147,
      "חזרה": 5148,
      "##מינים": 5149,
      "שינה": 5150,
      "##פחה": 5151,
      "##מפיין": 5152,
      "דם": 5153,
      "הימים": 5154,
      "##גיש": 5155,
      "הפך": 5156,
      "##אול": 5157,
      "עול": 5158,
      "07": 5159,
      "זונה": 5160,
      "פט": 5161,
      "he": 5162,
      "בחודש": 5163,
      "##טיבית": 5164,
      "יגיע": 5165,
      "רחב": 5166,
      "יכולת": 5167,
      "חולים": 5168,
      "קבע": 5169,
      "גוף": 5170,
      "הנפ": 5171,
      "99": 5172,
      "פרשת": 5173,
      "##ht": 5174,
      "מעדי": 5175,
      "איזו": 5176,
      "##רחק": 5177,
      "יאיר": 5178,
      "##שרי": 5179,
      "שמחה": 5180,
      "טובות": 5181,
      "עצוב": 5182,
      "במשרד": 5183,
      "##יתם": 5184,
      "קיר": 5185,
      "דיס": 5186,
      "הרוח": 5187,
      "##он": 5188,
      "להתמודד": 5189,
      "קלא": 5190,
      "לארץ": 5191,
      "##ופל": 5192,
      "45": 5193,
      "le": 5194,
      "לפתוח": 5195,
      "הסיבה": 5196,
      "הוע": 5197,
      "עשר": 5198,
      "##וריון": 5199,
      "שניתן": 5200,
      "יצי": 5201,
      "היחס": 5202,
      "מטע": 5203,
      "יופי": 5204,
      "יית": 5205,
      "##למים": 5206,
      "לעצמי": 5207,
      "מאוחר": 5208,
      "##af": 5209,
      "it": 5210,
      "##ביות": 5211,
      "חושבים": 5212,
      "##ואן": 5213,
      "שמצ": 5214,
      "בכפר": 5215,
      "##יריית": 5216,
      "שחור": 5217,
      "##נדי": 5218,
      "##נב": 5219,
      "##קק": 5220,
      "קשור": 5221,
      "ישראלים": 5222,
      "##כז": 5223,
      "יוע": 5224,
      "הבינ": 5225,
      "חמישי": 5226,
      "ויק": 5227,
      "דת": 5228,
      "להפוך": 5229,
      "עב": 5230,
      "##ine": 5231,
      "##דית": 5232,
      "אכפת": 5233,
      "חובה": 5234,
      "אינט": 5235,
      "יקר": 5236,
      "גז": 5237,
      "##ראיון": 5238,
      "##נז": 5239,
      "הכסף": 5240,
      "כיוון": 5241,
      "טעם": 5242,
      "u05": 5243,
      "סופר": 5244,
      "##בורים": 5245,
      "##געגע": 5246,
      "החז": 5247,
      "##דימה": 5248,
      "נמוך": 5249,
      "##קול": 5250,
      "והיה": 5251,
      "מנכ": 5252,
      "מחקר": 5253,
      "##קוב": 5254,
      "##גובה": 5255,
      "להתק": 5256,
      "עשיתי": 5257,
      "מנג": 5258,
      "בתחילת": 5259,
      "מגע": 5260,
      "##ופול": 5261,
      "דג": 5262,
      "שתה": 5263,
      "בקב": 5264,
      "ובין": 5265,
      "##ושות": 5266,
      "https": 5267,
      "av": 5268,
      "בחיי": 5269,
      "התובעת": 5270,
      "##ish": 5271,
      "##ואות": 5272,
      "##ומיות": 5273,
      "בקרי": 5274,
      "בעבודה": 5275,
      "אצלנו": 5276,
      "להשיג": 5277,
      "החוץ": 5278,
      "נזק": 5279,
      "שאלות": 5280,
      "##כלו": 5281,
      "##יון": 5282,
      "לעבר": 5283,
      "סוב": 5284,
      "##גוון": 5285,
      "שנש": 5286,
      "ויה": 5287,
      "התמונה": 5288,
      "אוס": 5289,
      "האג": 5290,
      "##ор": 5291,
      "וזאת": 5292,
      "נפלא": 5293,
      "post": 5294,
      "##מיר": 5295,
      "##חשוב": 5296,
      "מגד": 5297,
      "משר": 5298,
      "לטובת": 5299,
      "השאר": 5300,
      "במערכת": 5301,
      "לביטוח": 5302,
      "##כונת": 5303,
      "בחדר": 5304,
      "שיעור": 5305,
      "שמישהו": 5306,
      "המערכת": 5307,
      "##ודיע": 5308,
      "חיו": 5309,
      "מהד": 5310,
      "##תיקה": 5311,
      "רציתי": 5312,
      "##מאי": 5313,
      "##ברר": 5314,
      "השחק": 5315,
      "הנע": 5316,
      "קבוצה": 5317,
      "31": 5318,
      "כללי": 5319,
      "מושג": 5320,
      "לציין": 5321,
      "ראוי": 5322,
      "והג": 5323,
      "##חרי": 5324,
      "##ort": 5325,
      "צעיר": 5326,
      "##פוך": 5327,
      "בתא": 5328,
      "ולח": 5329,
      "מוצרים": 5330,
      "ar": 5331,
      "אתרים": 5332,
      "מנד": 5333,
      "אירופה": 5334,
      "אמן": 5335,
      "##ניב": 5336,
      "חור": 5337,
      "##ילי": 5338,
      "ספרי": 5339,
      "בטוויטר": 5340,
      "הצעת": 5341,
      "##וכים": 5342,
      "##ונד": 5343,
      "צרפת": 5344,
      "בחברה": 5345,
      "אוי": 5346,
      "מבזקים": 5347,
      "08": 5348,
      "co": 5349,
      "קרן": 5350,
      "go": 5351,
      "##חירות": 5352,
      "##נפ": 5353,
      "עוצ": 5354,
      "##וין": 5355,
      "השתת": 5356,
      "נגמר": 5357,
      "עזה": 5358,
      "מעריב": 5359,
      "##מרה": 5360,
      "דק": 5361,
      "סיר": 5362,
      "האינטרנט": 5363,
      "ביניהם": 5364,
      "##ונש": 5365,
      "שהה": 5366,
      "##כתה": 5367,
      "טוויטר": 5368,
      "מהי": 5369,
      "מוקדם": 5370,
      "ויא": 5371,
      "##ריכים": 5372,
      "טעות": 5373,
      "אלב": 5374,
      "הינה": 5375,
      "##כנו": 5376,
      "מבר": 5377,
      "##ושבים": 5378,
      "וול": 5379,
      "##ide": 5380,
      "נוה": 5381,
      "##מורה": 5382,
      "הפני": 5383,
      "במשחק": 5384,
      "##שב": 5385,
      "ציפ": 5386,
      "דן": 5387,
      "שיחה": 5388,
      "ערבים": 5389,
      "עורך": 5390,
      "בפועל": 5391,
      "נשי": 5392,
      "הולכים": 5393,
      "בגר": 5394,
      "בקרוב": 5395,
      "הקמת": 5396,
      "##גלה": 5397,
      "##עתם": 5398,
      "2014": 5399,
      "בחלק": 5400,
      "לשבת": 5401,
      "לנת": 5402,
      "האס": 5403,
      "השונים": 5404,
      "##וטל": 5405,
      "מכך": 5406,
      "מבט": 5407,
      "האזרח": 5408,
      "לגרום": 5409,
      "##סיה": 5410,
      "sp": 5411,
      "כתבה": 5412,
      "##יימים": 5413,
      "##זרו": 5414,
      "בחוץ": 5415,
      "מתב": 5416,
      "##רן": 5417,
      "שגר": 5418,
      "חלב": 5419,
      "שמות": 5420,
      "##קם": 5421,
      "שהס": 5422,
      "##ran": 5423,
      "##ен": 5424,
      "##מטיקה": 5425,
      "אורי": 5426,
      "כשאתה": 5427,
      "בבל": 5428,
      "מיר": 5429,
      "##ריע": 5430,
      "ציוד": 5431,
      "##all": 5432,
      "פרטים": 5433,
      "והי": 5434,
      "להפסיק": 5435,
      "זוכר": 5436,
      "מכיוון": 5437,
      "חמוד": 5438,
      "ושוב": 5439,
      "בצל": 5440,
      "ורו": 5441,
      "##יבוש": 5442,
      "##לויות": 5443,
      "שמונה": 5444,
      "##זין": 5445,
      "נהרג": 5446,
      "התרבות": 5447,
      "אנטי": 5448,
      "מגיעים": 5449,
      "##ולדת": 5450,
      "ולאחר": 5451,
      "החלק": 5452,
      "לצע": 5453,
      "##מרות": 5454,
      "##גנון": 5455,
      "ולב": 5456,
      "ויע": 5457,
      "שלם": 5458,
      "##יאון": 5459,
      "העל": 5460,
      "לחת": 5461,
      "המוח": 5462,
      "בסך": 5463,
      "מבקשים": 5464,
      "שקי": 5465,
      "##יימת": 5466,
      "מטעם": 5467,
      "לאתר": 5468,
      "אט": 5469,
      "##our": 5470,
      "הכות": 5471,
      "מרת": 5472,
      "מוות": 5473,
      "לאירוע": 5474,
      "דף": 5475,
      "בנימין": 5476,
      "##נדה": 5477,
      "מזמן": 5478,
      "##ונדון": 5479,
      "תשובה": 5480,
      "שלח": 5481,
      "לשלוח": 5482,
      "מצליח": 5483,
      "הלח": 5484,
      "שיח": 5485,
      "מפע": 5486,
      "סבא": 5487,
      "בערך": 5488,
      "איראן": 5489,
      "##גישות": 5490,
      "למא": 5491,
      "##בדל": 5492,
      "מלחמה": 5493,
      "##פחת": 5494,
      "חומר": 5495,
      "הליכוד": 5496,
      "##קיה": 5497,
      "אמי": 5498,
      "מסר": 5499,
      "יאללה": 5500,
      "צודק": 5501,
      "##ודד": 5502,
      "כואב": 5503,
      "אדום": 5504,
      "##כרות": 5505,
      "הבינלא": 5506,
      "##ie": 5507,
      "שעל": 5508,
      "##לכה": 5509,
      "##פרו": 5510,
      "##תתתת": 5511,
      "מוזר": 5512,
      "מבצע": 5513,
      "רחוק": 5514,
      "תלוי": 5515,
      "יבוא": 5516,
      "##דינת": 5517,
      "מדר": 5518,
      "לנסות": 5519,
      "ויל": 5520,
      "##را": 5521,
      "שבהם": 5522,
      "ידעתי": 5523,
      "שוח": 5524,
      "500": 5525,
      "עצמך": 5526,
      "בצה": 5527,
      "לשר": 5528,
      "פיל": 5529,
      "גרוע": 5530,
      "##ורו": 5531,
      "ואולי": 5532,
      "השלישי": 5533,
      "##רע": 5534,
      "שמואל": 5535,
      "##😂😂😂": 5536,
      "איתם": 5537,
      "ומכ": 5538,
      "מחירי": 5539,
      "הכס": 5540,
      "ללק": 5541,
      "##ורמים": 5542,
      "##ip": 5543,
      "מוצרי": 5544,
      "לתח": 5545,
      "אוף": 5546,
      "ליר": 5547,
      "כותב": 5548,
      "כנסת": 5549,
      "##וקס": 5550,
      "##ניס": 5551,
      "##רוכה": 5552,
      "הוש": 5553,
      "##כלים": 5554,
      "לכבוד": 5555,
      "כלכלי": 5556,
      "המציאות": 5557,
      "##יפות": 5558,
      "הראשונים": 5559,
      "קיימת": 5560,
      "##מז": 5561,
      "אודות": 5562,
      "195": 5563,
      "##דיש": 5564,
      "מבינים": 5565,
      "##טרק": 5566,
      "##ard": 5567,
      "מאמינה": 5568,
      "ישנם": 5569,
      "שונא": 5570,
      "תושבי": 5571,
      "כבי": 5572,
      "מציע": 5573,
      "כולו": 5574,
      "סקס": 5575,
      "##ונו": 5576,
      "כתוצאה": 5577,
      "נמו": 5578,
      "איתה": 5579,
      "רוז": 5580,
      "להכיר": 5581,
      "##מונת": 5582,
      "קיו": 5583,
      "מבקש": 5584,
      "##צוף": 5585,
      "המזרח": 5586,
      "##טרות": 5587,
      "שהגיע": 5588,
      "##בתא": 5589,
      "##ופית": 5590,
      "לקום": 5591,
      "שמעון": 5592,
      "##ילוב": 5593,
      "מקבלים": 5594,
      "##מלא": 5595,
      "תכנית": 5596,
      "מתאי": 5597,
      "בכיר": 5598,
      "מכירה": 5599,
      "##מוקרטיה": 5600,
      "##ар": 5601,
      "איתן": 5602,
      "היהודית": 5603,
      "האינ": 5604,
      "wh": 5605,
      "מחפשים": 5606,
      "##לבום": 5607,
      "##כין": 5608,
      "חגי": 5609,
      "##שתת": 5610,
      "##וטרים": 5611,
      "סיפר": 5612,
      "זכה": 5613,
      "תרו": 5614,
      "##פנים": 5615,
      "הגול": 5616,
      "מלון": 5617,
      "קה": 5618,
      "##כניס": 5619,
      "##צועים": 5620,
      "לגי": 5621,
      "##ונט": 5622,
      "סיכוי": 5623,
      "צר": 5624,
      "פרופ": 5625,
      "דמי": 5626,
      "##בלתי": 5627,
      "שלב": 5628,
      "דרו": 5629,
      "שטח": 5630,
      "יכולות": 5631,
      "##וכבים": 5632,
      "להב": 5633,
      "באוניברסי": 5634,
      "לצפות": 5635,
      "יוסי": 5636,
      "חחחחחח": 5637,
      "והק": 5638,
      "עתיד": 5639,
      "##פטמבר": 5640,
      "##ארט": 5641,
      "תוצאות": 5642,
      "בכדי": 5643,
      "##יהו": 5644,
      "##קף": 5645,
      "הזדמנות": 5646,
      "העול": 5647,
      "האישה": 5648,
      "##גשתי": 5649,
      "העניין": 5650,
      "##סטיבל": 5651,
      "החברות": 5652,
      "תמיכה": 5653,
      "גיא": 5654,
      "בבע": 5655,
      "בנים": 5656,
      "##יקו": 5657,
      "##לטות": 5658,
      "המילה": 5659,
      "גורמים": 5660,
      "בשטח": 5661,
      "הכדור": 5662,
      "התביעה": 5663,
      "חחחחחחח": 5664,
      "bb": 5665,
      "##נסות": 5666,
      "אירועים": 5667,
      "באינטרנט": 5668,
      "##ver": 5669,
      "שרא": 5670,
      "בדרום": 5671,
      "לנק": 5672,
      "השרון": 5673,
      "מרגישה": 5674,
      "הקרוב": 5675,
      "36": 5676,
      "מיליארד": 5677,
      "מסוים": 5678,
      "לעלות": 5679,
      "##az": 5680,
      "04": 5681,
      "##ight": 5682,
      "##אלות": 5683,
      "לקב": 5684,
      "משמעותי": 5685,
      "##לושה": 5686,
      "אישור": 5687,
      "אליהם": 5688,
      "מקומות": 5689,
      "לנצח": 5690,
      "##וגיות": 5691,
      "התנועה": 5692,
      "##ud": 5693,
      "מלה": 5694,
      "ימין": 5695,
      "##זות": 5696,
      "##נסקי": 5697,
      "גזע": 5698,
      "##נשי": 5699,
      "מזכיר": 5700,
      "##ריון": 5701,
      "להסביר": 5702,
      "האו": 5703,
      "עני": 5704,
      "ששי": 5705,
      "##עע": 5706,
      "bl": 5707,
      "מסתבר": 5708,
      "##ניהול": 5709,
      "הדת": 5710,
      "il": 5711,
      "לעבודות": 5712,
      "##נחה": 5713,
      "##נרת": 5714,
      "##ביעת": 5715,
      "משתמש": 5716,
      "ישנה": 5717,
      "02": 5718,
      "התחיל": 5719,
      "קירות": 5720,
      "01": 5721,
      "וו": 5722,
      "##ומם": 5723,
      "כשי": 5724,
      "לחיים": 5725,
      "קרב": 5726,
      "##שטיין": 5727,
      "מישהי": 5728,
      "חינוך": 5729,
      "##art": 5730,
      "באור": 5731,
      "נמצאים": 5732,
      "##גול": 5733,
      "##ניום": 5734,
      "האוצר": 5735,
      "לאט": 5736,
      "מהבית": 5737,
      "וכמ": 5738,
      "במצ": 5739,
      "38": 5740,
      "כתי": 5741,
      "##צבן": 5742,
      "כיס": 5743,
      "##וטובוס": 5744,
      "עשרה": 5745,
      "##ציא": 5746,
      "מבוס": 5747,
      "##טרס": 5748,
      "בשנות": 5749,
      "בתקופה": 5750,
      "הוס": 5751,
      "יוכל": 5752,
      "לתוך": 5753,
      "דירות": 5754,
      "שמעתי": 5755,
      "##כבי": 5756,
      "מאחר": 5757,
      "כלים": 5758,
      "דיבר": 5759,
      "המוב": 5760,
      "להוסיף": 5761,
      "תינו": 5762,
      "דיי": 5763,
      "יחסי": 5764,
      "חמאס": 5765,
      "tel": 5766,
      "סביר": 5767,
      "מרד": 5768,
      "##כשיר": 5769,
      "הפרק": 5770,
      "וסי": 5771,
      "##ет": 5772,
      "ויותר": 5773,
      "נדר": 5774,
      "06": 5775,
      "הקור": 5776,
      "רצון": 5777,
      "רו": 5778,
      "אושר": 5779,
      "הרבי": 5780,
      "##צרו": 5781,
      "##ריח": 5782,
      "שקט": 5783,
      "##ירתו": 5784,
      "##מיני": 5785,
      "בערוץ": 5786,
      "תיקון": 5787,
      "pl": 5788,
      "בינתיים": 5789,
      "חיילים": 5790,
      "לאן": 5791,
      "מקל": 5792,
      "יתר": 5793,
      "##פחות": 5794,
      "##פד": 5795,
      "##מנ": 5796,
      "##רוע": 5797,
      "התחל": 5798,
      "העת": 5799,
      "ניתוח": 5800,
      "##ודאי": 5801,
      "##טען": 5802,
      "האת": 5803,
      "בתוכ": 5804,
      "שימו": 5805,
      "נוצ": 5806,
      "שמדובר": 5807,
      "וית": 5808,
      "##ורד": 5809,
      "##סית": 5810,
      "##יפוש": 5811,
      "##ub": 5812,
      "שבועות": 5813,
      "דקה": 5814,
      "התב": 5815,
      "פרט": 5816,
      "שנייה": 5817,
      "##חית": 5818,
      "##נסו": 5819,
      "##end": 5820,
      "##ant": 5821,
      "##ריד": 5822,
      "הפג": 5823,
      "##יקת": 5824,
      "##ולוגית": 5825,
      "שהן": 5826,
      "ואמר": 5827,
      "תנועה": 5828,
      "הצורך": 5829,
      "##שפ": 5830,
      "##קרב": 5831,
      "##מותה": 5832,
      "במג": 5833,
      "העובדים": 5834,
      "##ob": 5835,
      "נתונים": 5836,
      "##כנע": 5837,
      "למות": 5838,
      "הורים": 5839,
      "ad": 5840,
      "##וונים": 5841,
      "##טחים": 5842,
      "בעלת": 5843,
      "ארבעה": 5844,
      "בנוגע": 5845,
      "האב": 5846,
      "##ננה": 5847,
      "הנתבעת": 5848,
      "שדה": 5849,
      "בקול": 5850,
      "בגל": 5851,
      "##טויות": 5852,
      "לתל": 5853,
      "מפס": 5854,
      "תואר": 5855,
      "צדק": 5856,
      "שבח": 5857,
      "בקלות": 5858,
      "מפור": 5859,
      "##ובמבר": 5860,
      "וואו": 5861,
      "טלפון": 5862,
      "לוקח": 5863,
      "מיוחדת": 5864,
      "קיב": 5865,
      "סימן": 5866,
      "2013": 5867,
      "מועד": 5868,
      "צעירים": 5869,
      "בטר": 5870,
      "סקר": 5871,
      "##ere": 5872,
      "שחקן": 5873,
      "##ат": 5874,
      "להן": 5875,
      "לשאול": 5876,
      "193": 5877,
      "מלי": 5878,
      "פתרון": 5879,
      "qu": 5880,
      "מעשה": 5881,
      "קטנות": 5882,
      "##צרת": 5883,
      "העיק": 5884,
      "מזון": 5885,
      "עיריית": 5886,
      "##זת": 5887,
      "##ach": 5888,
      "יוני": 5889,
      "##נוק": 5890,
      "בשני": 5891,
      "חרא": 5892,
      "קבוצות": 5893,
      "ltd": 5894,
      "##רין": 5895,
      "נפצע": 5896,
      "כדורגל": 5897,
      "##טובר": 5898,
      "נוח": 5899,
      "הופך": 5900,
      "מסך": 5901,
      "באנגלית": 5902,
      "##קין": 5903,
      "מתן": 5904,
      "my": 5905,
      "##שיון": 5906,
      "ומב": 5907,
      "מהווה": 5908,
      "בפע": 5909,
      "והנה": 5910,
      "כרטי": 5911,
      "##טוא": 5912,
      "מקצועית": 5913,
      "שנפ": 5914,
      "תפי": 5915,
      "מוט": 5916,
      "דיון": 5917,
      "##ילא": 5918,
      "ועדיין": 5919,
      "נצי": 5920,
      "לגלות": 5921,
      "הקטע": 5922,
      "##ביה": 5923,
      "מיכ": 5924,
      "המור": 5925,
      "סבי": 5926,
      "שזו": 5927,
      "##מכם": 5928,
      "##ילית": 5929,
      "בפתח": 5930,
      "נחשב": 5931,
      "חחחחחחחחח": 5932,
      "שרון": 5933,
      "##סקת": 5934,
      "32": 5935,
      "##לחמת": 5936,
      "אקד": 5937,
      "##ליחו": 5938,
      "הלה": 5939,
      "שניה": 5940,
      "##ובית": 5941,
      "שיפ": 5942,
      "שנא": 5943,
      "##ענה": 5944,
      "##מנע": 5945,
      "אנג": 5946,
      "##וצי": 5947,
      "ההז": 5948,
      "##בוש": 5949,
      "חכם": 5950,
      "דרום": 5951,
      "בדבר": 5952,
      "פוט": 5953,
      "מתחילה": 5954,
      "##ידול": 5955,
      "פעמיים": 5956,
      "##יתוף": 5957,
      "לתי": 5958,
      "חנו": 5959,
      "הלך": 5960,
      "נסי": 5961,
      "בהס": 5962,
      "תמי": 5963,
      "מתחילים": 5964,
      "מטומט": 5965,
      "##נתיים": 5966,
      "בעברית": 5967,
      "יעשה": 5968,
      "העלי": 5969,
      "הנוכ": 5970,
      "הפלי": 5971,
      "באירופה": 5972,
      "##אהב": 5973,
      "ביטוי": 5974,
      "להרגיש": 5975,
      "והד": 5976,
      "ללב": 5977,
      "במקביל": 5978,
      "מצרים": 5979,
      "לרכוש": 5980,
      "יוצאת": 5981,
      "הקש": 5982,
      "שיער": 5983,
      "למק": 5984,
      "33": 5985,
      "הגדולים": 5986,
      "הרשות": 5987,
      "לפעול": 5988,
      "עיס": 5989,
      "##ונת": 5990,
      "לשני": 5991,
      "##עימה": 5992,
      "אליי": 5993,
      "בלה": 5994,
      "via": 5995,
      "הנושא": 5996,
      "ליברמן": 5997,
      "##ith": 5998,
      "יהוה": 5999,
      "##לתי": 6000,
      "##קורת": 6001,
      "##כלת": 6002,
      "##ועים": 6003,
      "עשוי": 6004,
      "אזור": 6005,
      "שהפ": 6006,
      "תנאי": 6007,
      "לחש": 6008,
      "ביקור": 6009,
      "2010": 6010,
      "מחפש": 6011,
      "רגל": 6012,
      "אובמה": 6013,
      "##לטת": 6014,
      "ההחלטה": 6015,
      "רלוו": 6016,
      "ידיעות": 6017,
      "הגי": 6018,
      "טבעי": 6019,
      "המיו": 6020,
      "סימ": 6021,
      "##נף": 6022,
      "##שיית": 6023,
      "לחברה": 6024,
      "השוק": 6025,
      "##ry": 6026,
      "##יציה": 6027,
      "תיע": 6028,
      "##ולחן": 6029,
      "סגן": 6030,
      "הדיון": 6031,
      "אחלה": 6032,
      "##ביים": 6033,
      "שכול": 6034,
      "##שאים": 6035,
      "##וברת": 6036,
      "האהבה": 6037,
      "##מצאו": 6038,
      "שאמר": 6039,
      "הספ": 6040,
      "ומד": 6041,
      "מחל": 6042,
      "##ירייה": 6043,
      "300": 6044,
      "משמעותית": 6045,
      "שומר": 6046,
      "הגל": 6047,
      "##וגיה": 6048,
      "##ain": 6049,
      "פוסט": 6050,
      "לכאורה": 6051,
      "נחמד": 6052,
      "תעשה": 6053,
      "ויי": 6054,
      "בחורה": 6055,
      "##ננים": 6056,
      "##נך": 6057,
      "הגנה": 6058,
      "שאינם": 6059,
      "סמוך": 6060,
      "##בריה": 6061,
      "ארצות": 6062,
      "הצליח": 6063,
      "מהיר": 6064,
      "בואי": 6065,
      "השב": 6066,
      "שאף": 6067,
      "##רחש": 6068,
      "נקי": 6069,
      "חייו": 6070,
      "המחיר": 6071,
      "##ירוף": 6072,
      "בינלא": 6073,
      "בתע": 6074,
      "המחש": 6075,
      "לקח": 6076,
      "בגד": 6077,
      "תשלום": 6078,
      "##וונת": 6079,
      "חשיבות": 6080,
      "רוסיה": 6081,
      "לפגוע": 6082,
      "מזג": 6083,
      "אפשרי": 6084,
      "כרטיס": 6085,
      "לטיפול": 6086,
      "עובדת": 6087,
      "ואילו": 6088,
      "וידאו": 6089,
      "ייצ": 6090,
      "הגיעה": 6091,
      "בכי": 6092,
      "##ריס": 6093,
      "##מדות": 6094,
      "נשק": 6095,
      "##50": 6096,
      "ציוץ": 6097,
      "te": 6098,
      "ואנחנו": 6099,
      "we": 6100,
      "##געת": 6101,
      "קורס": 6102,
      "דרעי": 6103,
      "ורג": 6104,
      "מאר": 6105,
      "אלקט": 6106,
      "העברית": 6107,
      "כאב": 6108,
      "ממע": 6109,
      "ודי": 6110,
      "הנשים": 6111,
      "##ark": 6112,
      "אינטרנט": 6113,
      "אוטומ": 6114,
      "המדי": 6115,
      "במהירות": 6116,
      "מדיניות": 6117,
      "אריה": 6118,
      "##ive": 6119,
      "ממשיך": 6120,
      "עמוס": 6121,
      "נוג": 6122,
      "וכמובן": 6123,
      "החברים": 6124,
      "##בילי": 6125,
      "פצ": 6126,
      "##חיד": 6127,
      "דמ": 6128,
      "צפוי": 6129,
      "משתמשים": 6130,
      "ביטחון": 6131,
      "אלון": 6132,
      "זהב": 6133,
      "הנכון": 6134,
      "תחום": 6135,
      "גשם": 6136,
      "בחו": 6137,
      "משפחות": 6138,
      "דניאל": 6139,
      "##סד": 6140,
      "מורה": 6141,
      "החק": 6142,
      "ארוכה": 6143,
      "מסכים": 6144,
      "להתח": 6145,
      "##ילוי": 6146,
      "הטובים": 6147,
      "השואה": 6148,
      "##וויות": 6149,
      "הביטוח": 6150,
      "##מחים": 6151,
      "הבנק": 6152,
      "קרית": 6153,
      "הנח": 6154,
      "רפוא": 6155,
      "בשירות": 6156,
      "לחפש": 6157,
      "##😂😂😂😂😂😂😂😂": 6158,
      "לרגע": 6159,
      "by": 6160,
      "ולת": 6161,
      "וכמה": 6162,
      "הערבים": 6163,
      "##יונ": 6164,
      "##يي": 6165,
      "##ки": 6166,
      "לרי": 6167,
      "שרת": 6168,
      "##אש": 6169,
      "במחיר": 6170,
      "נאמר": 6171,
      "באו": 6172,
      "##ניון": 6173,
      "אלינו": 6174,
      "##נכ": 6175,
      "מצאתי": 6176,
      "בתפקיד": 6177,
      "החדשות": 6178,
      "##ארק": 6179,
      "לוותר": 6180,
      "כחלון": 6181,
      "ובח": 6182,
      "כתוב": 6183,
      "ורי": 6184,
      "תגיד": 6185,
      "אילן": 6186,
      "קדימה": 6187,
      "תוכן": 6188,
      "##ell": 6189,
      "##וכית": 6190,
      "פייסבוק": 6191,
      "התשובה": 6192,
      "מוזיקה": 6193,
      "##ack": 6194,
      "אע": 6195,
      "מדע": 6196,
      "##ומד": 6197,
      "##יינת": 6198,
      "פינ": 6199,
      "##פונים": 6200,
      "מעין": 6201,
      "יושב": 6202,
      "##ge": 6203,
      "##rat": 6204,
      "הנתבע": 6205,
      "לעיתים": 6206,
      "##טוס": 6207,
      "##צמבר": 6208,
      "בבתי": 6209,
      "##קרות": 6210,
      "##ודיים": 6211,
      "הימין": 6212,
      "##од": 6213,
      "##ובדים": 6214,
      "חום": 6215,
      "חוג": 6216,
      "##ישים": 6217,
      "כאלו": 6218,
      "העור": 6219,
      "הבאים": 6220,
      "##ne": 6221,
      "כביש": 6222,
      "להיפ": 6223,
      "##בך": 6224,
      "ההבדל": 6225,
      "הקהל": 6226,
      "אוני": 6227,
      "חוקי": 6228,
      "כולה": 6229,
      "טוען": 6230,
      "נתי": 6231,
      "פתוח": 6232,
      "לאדם": 6233,
      "ex": 6234,
      "הלימודים": 6235,
      "34": 6236,
      "##יתונות": 6237,
      "דפ": 6238,
      "הטובה": 6239,
      "ממי": 6240,
      "##קלון": 6241,
      "מביא": 6242,
      "התוכנית": 6243,
      "בכנסת": 6244,
      "אקס": 6245,
      "חשב": 6246,
      "##но": 6247,
      "חן": 6248,
      "מבחינה": 6249,
      "##12": 6250,
      "רוק": 6251,
      "##פליק": 6252,
      "קוק": 6253,
      "##פקד": 6254,
      "##מיק": 6255,
      "##שנות": 6256,
      "##פיע": 6257,
      "##ניף": 6258,
      "יפים": 6259,
      "נקבע": 6260,
      "בוג": 6261,
      "קלה": 6262,
      "##ка": 6263,
      "##יוט": 6264,
      "ואיך": 6265,
      "הטרור": 6266,
      "##מינה": 6267,
      "##iz": 6268,
      "אביו": 6269,
      "המנו": 6270,
      "פעולות": 6271,
      "##דיקה": 6272,
      "##נינו": 6273,
      "##נהלות": 6274,
      "סיום": 6275,
      "לכיוון": 6276,
      "האלו": 6277,
      "##ולוגיות": 6278,
      "תקופת": 6279,
      "החול": 6280,
      "הארגון": 6281,
      "אינס": 6282,
      "לעצמו": 6283,
      "מהן": 6284,
      "שוכ": 6285,
      "יצר": 6286,
      "נאל": 6287,
      "##oad": 6288,
      "יואו": 6289,
      "אמיתית": 6290,
      "נכונה": 6291,
      "החליט": 6292,
      "##מרט": 6293,
      "##עתו": 6294,
      "להגד": 6295,
      "צפון": 6296,
      "איכ": 6297,
      "נהג": 6298,
      "##גלית": 6299,
      "##רבות": 6300,
      "באיזה": 6301,
      "המלון": 6302,
      "חשובה": 6303,
      "והב": 6304,
      "הלקוח": 6305,
      "צומת": 6306,
      "ברוב": 6307,
      "בנת": 6308,
      "עברו": 6309,
      "מאל": 6310,
      "השח": 6311,
      "במטרה": 6312,
      "וכד": 6313,
      "רבין": 6314,
      "לאפשר": 6315,
      "היצ": 6316,
      "יומ": 6317,
      "##אלית": 6318,
      "##בדה": 6319,
      "##פיד": 6320,
      "חזקה": 6321,
      "##כתבה": 6322,
      "גופ": 6323,
      "##גרה": 6324,
      "קבל": 6325,
      "##בוא": 6326,
      "הפרטים": 6327,
      "אמנות": 6328,
      "רביעי": 6329,
      "ברכ": 6330,
      "המשות": 6331,
      "##וזר": 6332,
      "מצט": 6333,
      "המועצה": 6334,
      "el": 6335,
      "הקהילה": 6336,
      "נמצאת": 6337,
      "במקרים": 6338,
      "מתל": 6339,
      "האנ": 6340,
      "לים": 6341,
      "##רגש": 6342,
      "##נסיה": 6343,
      "##גלים": 6344,
      "הנראה": 6345,
      "להוריד": 6346,
      "##ודיה": 6347,
      "##חחחחחחחחחחחחחחחח": 6348,
      "ובס": 6349,
      "##פרת": 6350,
      "##עזר": 6351,
      "בשעות": 6352,
      "להכין": 6353,
      "בחירות": 6354,
      "##יגה": 6355,
      "##מתו": 6356,
      "##😭😭": 6357,
      "נקרא": 6358,
      "שטר": 6359,
      "מוכר": 6360,
      "לספק": 6361,
      "והר": 6362,
      "יין": 6363,
      "היוע": 6364,
      "##ליכים": 6365,
      "מצפה": 6366,
      "##זן": 6367,
      "הכוח": 6368,
      "חיה": 6369,
      "מודה": 6370,
      "##בינו": 6371,
      "בוט": 6372,
      "##ניו": 6373,
      "##והר": 6374,
      "היס": 6375,
      "##זרי": 6376,
      "ייתכן": 6377,
      "אפס": 6378,
      "מכר": 6379,
      "שאנו": 6380,
      "##of": 6381,
      "##ודעות": 6382,
      "ופר": 6383,
      "טעים": 6384,
      "בבני": 6385,
      "תוכל": 6386,
      "##ילד": 6387,
      "במספר": 6388,
      "##ust": 6389,
      "והכל": 6390,
      "##מנויות": 6391,
      "בהר": 6392,
      "רעיון": 6393,
      "להישאר": 6394,
      "רפואי": 6395,
      "##לתה": 6396,
      "עיני": 6397,
      "אפליק": 6398,
      "שטי": 6399,
      "##ong": 6400,
      "לעצור": 6401,
      "מאוה": 6402,
      "מרק": 6403,
      "שיצ": 6404,
      "##למות": 6405,
      "תיר": 6406,
      "שעברה": 6407,
      "שהייתה": 6408,
      "##ומיניום": 6409,
      "יהודית": 6410,
      "מתקני": 6411,
      "עמד": 6412,
      "##וברים": 6413,
      "בבחירות": 6414,
      "חיס": 6415,
      "המות": 6416,
      "מיוחדים": 6417,
      "פחד": 6418,
      "##ולדות": 6419,
      "##טוי": 6420,
      "רוט": 6421,
      "בטוחה": 6422,
      "תרג": 6423,
      "##עדה": 6424,
      "שבין": 6425,
      "אליהו": 6426,
      "##ال": 6427,
      "מבנה": 6428,
      "##שט": 6429,
      "משם": 6430,
      "##11": 6431,
      "##ניתוח": 6432,
      "##כמה": 6433,
      "לתפקיד": 6434,
      "דב": 6435,
      "שמק": 6436,
      "צעד": 6437,
      "##טלי": 6438,
      "הממו": 6439,
      "##כוה": 6440,
      "מצווה": 6441,
      "האקד": 6442,
      "הציבורי": 6443,
      "##תיי": 6444,
      "אריאל": 6445,
      "לאחד": 6446,
      "צינורות": 6447,
      "מגיעה": 6448,
      "##וסקים": 6449,
      "בניו": 6450,
      "שקד": 6451,
      "דמות": 6452,
      "חוס": 6453,
      "##כנולוגיה": 6454,
      "##דיות": 6455,
      "##חייה": 6456,
      "המפור": 6457,
      "##pl": 6458,
      "##צעי": 6459,
      "ההגנה": 6460,
      "##ice": 6461,
      "##יתנו": 6462,
      "שליט": 6463,
      "br": 6464,
      "שוקולד": 6465,
      "##ace": 6466,
      "התיק": 6467,
      "להשק": 6468,
      "הנאשם": 6469,
      "מעמד": 6470,
      "החלה": 6471,
      "רגב": 6472,
      "ובעיקר": 6473,
      "להתפ": 6474,
      "המטרה": 6475,
      "##ערה": 6476,
      "##גיה": 6477,
      "מפלגת": 6478,
      "##ופס": 6479,
      "ון": 6480,
      "חברתית": 6481,
      "הרשת": 6482,
      "בימי": 6483,
      "48": 6484,
      "דל": 6485,
      "עתי": 6486,
      "לפס": 6487,
      "פגיעה": 6488,
      "גבאי": 6489,
      "זיה": 6490,
      "דוא": 6491,
      "וואי": 6492,
      "##וגות": 6493,
      "##צם": 6494,
      "גרמניה": 6495,
      "עובדי": 6496,
      "התייחס": 6497,
      "##נטיים": 6498,
      "מבע": 6499,
      "הראשי": 6500,
      "באח": 6501,
      "##ies": 6502,
      "למצב": 6503,
      "מלבד": 6504,
      "סיב": 6505,
      "הלאומי": 6506,
      "##וזים": 6507,
      "באירוע": 6508,
      "שפת": 6509,
      "הצטר": 6510,
      "איז": 6511,
      "להיר": 6512,
      "להחליף": 6513,
      "שפיר": 6514,
      "##רבים": 6515,
      "הנד": 6516,
      "שהייתי": 6517,
      "##פח": 6518,
      "אשכנ": 6519,
      "##der": 6520,
      "ובו": 6521,
      "##מסר": 6522,
      "שיתוף": 6523,
      "עמוק": 6524,
      "המשרד": 6525,
      "מוקד": 6526,
      "##לנד": 6527,
      "לעתים": 6528,
      "פלדה": 6529,
      "נהיה": 6530,
      "הקודם": 6531,
      "הפוע": 6532,
      "הבה": 6533,
      "נוער": 6534,
      "מפי": 6535,
      "קיבלתי": 6536,
      "עמי": 6537,
      "95": 6538,
      "אליך": 6539,
      "החלו": 6540,
      "##נהג": 6541,
      "פועל": 6542,
      "שלהן": 6543,
      "משחקי": 6544,
      "עיניים": 6545,
      "fr": 6546,
      "מוצר": 6547,
      "מוזמנים": 6548,
      "התעופה": 6549,
      "##ועדת": 6550,
      "##סטים": 6551,
      "מוצא": 6552,
      "or": 6553,
      "לבקר": 6554,
      "##ליטות": 6555,
      "2000": 6556,
      "נפר": 6557,
      "הלכה": 6558,
      "אורן": 6559,
      "ונת": 6560,
      "לאהוב": 6561,
      "עמית": 6562,
      "##חתה": 6563,
      "עליכם": 6564,
      "ולס": 6565,
      "גרם": 6566,
      "אהבת": 6567,
      "בושה": 6568,
      "החופש": 6569,
      "##שאיר": 6570,
      "##qu": 6571,
      "להאמין": 6572,
      "עבודת": 6573,
      "##וקות": 6574,
      "והמש": 6575,
      "##פלים": 6576,
      "המחוזי": 6577,
      "בחשבון": 6578,
      "##טול": 6579,
      "בתגובה": 6580,
      "##15": 6581,
      "קרקע": 6582,
      "הסדר": 6583,
      "##ניקה": 6584,
      "השמש": 6585,
      "התיכון": 6586,
      "משמש": 6587,
      "ברצי": 6588,
      "שערים": 6589,
      "2009": 6590,
      "##ליטו": 6591,
      "שבש": 6592,
      "משול": 6593,
      "##וצץ": 6594,
      "לחלק": 6595,
      "יומיים": 6596,
      "מחשב": 6597,
      "##ענו": 6598,
      "זין": 6599,
      "גוריון": 6600,
      "הפעילות": 6601,
      "גולן": 6602,
      "ריי": 6603,
      "2008": 6604,
      "טרם": 6605,
      "נותנים": 6606,
      "##זמן": 6607,
      "בקשר": 6608,
      "##ity": 6609,
      "לרבות": 6610,
      "מירי": 6611,
      "הסביבה": 6612,
      "למישהו": 6613,
      "כחלק": 6614,
      "המומ": 6615,
      "bu": 6616,
      "##ויב": 6617,
      "לשכוח": 6618,
      "##קדמות": 6619,
      "ישראלית": 6620,
      "##ילויות": 6621,
      "תשע": 6622,
      "בפנים": 6623,
      "יצאו": 6624,
      "##כנות": 6625,
      "##זוק": 6626,
      "##ודיות": 6627,
      "היכולת": 6628,
      "ביצ": 6629,
      "##וזיציה": 6630,
      "לקבוע": 6631,
      "נראית": 6632,
      "עיק": 6633,
      "מאיפה": 6634,
      "ריש": 6635,
      "גדולות": 6636,
      "ירוק": 6637,
      "us": 6638,
      "##כרים": 6639,
      "חיות": 6640,
      "הרכבת": 6641,
      "לשימוש": 6642,
      "המחקר": 6643,
      "יוצאים": 6644,
      "האזור": 6645,
      "במאי": 6646,
      "ניי": 6647,
      "##ילן": 6648,
      "דלתות": 6649,
      "טא": 6650,
      "הקיץ": 6651,
      "שווי": 6652,
      "##יין": 6653,
      "בינוני": 6654,
      "מחשבים": 6655,
      "חוזרת": 6656,
      "שיווק": 6657,
      "##עורר": 6658,
      "vide": 6659,
      "תחרות": 6660,
      "המוצר": 6661,
      "ונע": 6662,
      "בפרס": 6663,
      "להניח": 6664,
      "דיא": 6665,
      "לבקש": 6666,
      "המבקש": 6667,
      "##נגדות": 6668,
      "קוב": 6669,
      "##זוג": 6670,
      "בבאר": 6671,
      "##רש": 6672,
      "הוועדה": 6673,
      "##חתם": 6674,
      "קראתי": 6675,
      "##אד": 6676,
      "##ib": 6677,
      "בתקופת": 6678,
      "משיבים": 6679,
      "##נוב": 6680,
      "##ירון": 6681,
      "at": 6682,
      "##צג": 6683,
      "מבחן": 6684,
      "##בני": 6685,
      "الا": 6686,
      "שולח": 6687,
      "להעלות": 6688,
      "ph": 6689,
      "##יווק": 6690,
      "בפרו": 6691,
      "##זיקה": 6692,
      "##ash": 6693,
      "סבבה": 6694,
      "חיר": 6695,
      "באחד": 6696,
      "מעלות": 6697,
      "המילים": 6698,
      "##נסטגרם": 6699,
      "##ברואר": 6700,
      "שירותים": 6701,
      "להחזיר": 6702,
      "באת": 6703,
      "אלייך": 6704,
      "מרגש": 6705,
      "הפור": 6706,
      "השידור": 6707,
      "ושם": 6708,
      "הרעיון": 6709,
      "##טרך": 6710,
      "מקסי": 6711,
      "שאנשים": 6712,
      "קיימים": 6713,
      "שוט": 6714,
      "מגן": 6715,
      "37": 6716,
      "##צעת": 6717,
      "מפקד": 6718,
      "בניית": 6719,
      "פרויקט": 6720,
      "##ит": 6721,
      "##age": 6722,
      "שיותר": 6723,
      "##כרתי": 6724,
      "טיול": 6725,
      "מדברת": 6726,
      "44": 6727,
      "##ושע": 6728,
      "##ואליציה": 6729,
      "##נצל": 6730,
      "מרכזי": 6731,
      "##כלתי": 6732,
      "##ian": 6733,
      "לכול": 6734,
      "##ייני": 6735,
      "הממש": 6736,
      "המפלגה": 6737,
      "לדא": 6738,
      "חלום": 6739,
      "ישיר": 6740,
      "43": 6741,
      "##שיפה": 6742,
      "בחול": 6743,
      "##נטה": 6744,
      "ביקש": 6745,
      "המחבל": 6746,
      "רופא": 6747,
      "##ויה": 6748,
      "u05d": 6749,
      "כושר": 6750,
      "גישה": 6751,
      "ארוחת": 6752,
      "מהב": 6753,
      "בלעדי": 6754,
      "צפ": 6755,
      "תגובה": 6756,
      "one": 6757,
      "ישירות": 6758,
      "אסטר": 6759,
      "##ווא": 6760,
      "כלשהו": 6761,
      "זוהי": 6762,
      "שהב": 6763,
      "רכבת": 6764,
      "##אט": 6765,
      "הדור": 6766,
      "amp": 6767,
      "אשת": 6768,
      "##בורג": 6769,
      "פג": 6770,
      "##כבים": 6771,
      "חטי": 6772,
      "חייל": 6773,
      "##ושם": 6774,
      "tr": 6775,
      "לנשים": 6776,
      "ראשית": 6777,
      "שיניים": 6778,
      "רצה": 6779,
      "##נץ": 6780,
      "בגוף": 6781,
      "יצירת": 6782,
      "הסדרה": 6783,
      "ואחרי": 6784,
      "##נאות": 6785,
      "##כוהול": 6786,
      "##כנן": 6787,
      "משמע": 6788,
      "להציג": 6789,
      "מאור": 6790,
      "עברי": 6791,
      "התקופה": 6792,
      "##ונק": 6793,
      "##נייני": 6794,
      "##פעיל": 6795,
      "הטלפון": 6796,
      "שהופ": 6797,
      "aviv": 6798,
      "טקס": 6799,
      "##טחה": 6800,
      "הסוף": 6801,
      "מהק": 6802,
      "##מורת": 6803,
      "המשק": 6804,
      "##יתן": 6805,
      "יוכלו": 6806,
      "ותי": 6807,
      "הקטן": 6808,
      "ספי": 6809,
      "חצ": 6810,
      "ובכך": 6811,
      "##ודיו": 6812,
      "המרכזי": 6813,
      "המוק": 6814,
      "##ate": 6815,
      "##one": 6816,
      "לשלב": 6817,
      "פאק": 6818,
      "שניים": 6819,
      "הגישה": 6820,
      "הנוער": 6821,
      "##יונים": 6822,
      "##ינן": 6823,
      "לבל": 6824,
      "##כורת": 6825,
      "גולד": 6826,
      "##לאה": 6827,
      "אנרג": 6828,
      "שבמ": 6829,
      "תרגום": 6830,
      "לעניין": 6831,
      "שאוה": 6832,
      "התמ": 6833,
      "לזכור": 6834,
      "##עין": 6835,
      "מינית": 6836,
      "##נשטיין": 6837,
      "החמי": 6838,
      "##ציית": 6839,
      "##ин": 6840,
      "למדי": 6841,
      "קרו": 6842,
      "##לע": 6843,
      "לציבור": 6844,
      "אדמה": 6845,
      "המורה": 6846,
      "##גרש": 6847,
      "ומג": 6848,
      "לסייע": 6849,
      "להזמין": 6850,
      "עדן": 6851,
      "בטלפון": 6852,
      "##זיק": 6853,
      "la": 6854,
      "שיטת": 6855,
      "מצוין": 6856,
      "שמגיע": 6857,
      "##כוז": 6858,
      "##ан": 6859,
      "with": 6860,
      "סור": 6861,
      "מנסים": 6862,
      "פרץ": 6863,
      "##רררר": 6864,
      "##ולו": 6865,
      "שחקנים": 6866,
      "שואל": 6867,
      "גמר": 6868,
      "ריח": 6869,
      "באפרי": 6870,
      "מתפ": 6871,
      "לחם": 6872,
      "לשירות": 6873,
      "עומדת": 6874,
      "פתיחת": 6875,
      "קפ": 6876,
      "##פרה": 6877,
      "##ya": 6878,
      "באים": 6879,
      "האמיתי": 6880,
      "##מציה": 6881,
      "לקבלת": 6882,
      "להגן": 6883,
      "רחוב": 6884,
      "המיוחד": 6885,
      "ונש": 6886,
      "##טימי": 6887,
      "עצי": 6888,
      "לחבר": 6889,
      "39": 6890,
      "סבל": 6891,
      "משתת": 6892,
      "הספורט": 6893,
      "##ле": 6894,
      "הנתונים": 6895,
      "##מוי": 6896,
      "היע": 6897,
      "##יבוי": 6898,
      "שילוב": 6899,
      "יוח": 6900,
      "😂😂": 6901,
      "##וסייה": 6902,
      "רגיל": 6903,
      "שכולם": 6904,
      "##כירות": 6905,
      "##נטיות": 6906,
      "חוות": 6907,
      "הערבי": 6908,
      "מתוק": 6909,
      "מכאן": 6910,
      "תחילת": 6911,
      "משטרת": 6912,
      "אילת": 6913,
      "חרדים": 6914,
      "הזי": 6915,
      "טה": 6916,
      "סוריה": 6917,
      "עלול": 6918,
      "בים": 6919,
      "שקורה": 6920,
      "כני": 6921,
      "##שובה": 6922,
      "כבד": 6923,
      "להגיש": 6924,
      "##ובש": 6925,
      "##כבות": 6926,
      "##רטים": 6927,
      "##ומך": 6928,
      "##לחם": 6929,
      "אבר": 6930,
      "להקים": 6931,
      "בעתיד": 6932,
      "קהל": 6933,
      "##צחון": 6934,
      "יחידות": 6935,
      "אילו": 6936,
      "הפיגוע": 6937,
      "האז": 6938,
      "התנהגות": 6939,
      "מהצ": 6940,
      "תפסיק": 6941,
      "לעיר": 6942,
      "##ast": 6943,
      "פח": 6944,
      "הכח": 6945,
      "תשת": 6946,
      "כיכר": 6947,
      "מפחד": 6948,
      "חופשי": 6949,
      "מאה": 6950,
      "שירה": 6951,
      "##לחתי": 6952,
      "##up": 6953,
      "video": 6954,
      "בכתב": 6955,
      "חמישה": 6956,
      "הרשמת": 6957,
      "מורכב": 6958,
      "הרצוג": 6959,
      "הרשם": 6960,
      "משנת": 6961,
      "שיחות": 6962,
      "42": 6963,
      "כלב": 6964,
      "סרטים": 6965,
      "מנחם": 6966,
      "בעלות": 6967,
      "פסח": 6968,
      "הנוס": 6969,
      "##ודא": 6970,
      "ובני": 6971,
      "סיל": 6972,
      "לטפל": 6973,
      "##מידי": 6974,
      "##ןןןן": 6975,
      "אלכס": 6976,
      "אופן": 6977,
      "משקל": 6978,
      "חשבו": 6979,
      "בריא": 6980,
      "יובל": 6981,
      "##ינון": 6982,
      "החשמל": 6983,
      "למשחק": 6984,
      "##עויות": 6985,
      "עג": 6986,
      "##אשר": 6987,
      "שבועיים": 6988,
      "באשר": 6989,
      "##ידוש": 6990,
      "##נברג": 6991,
      "מתייחס": 6992,
      "סדרת": 6993,
      "מאיתנו": 6994,
      "במקומות": 6995,
      "משעמם": 6996,
      "לימודי": 6997,
      "בוכה": 6998,
      "אשתו": 6999,
      "##יקטים": 7000,
      "העד": 7001,
      "שיצא": 7002,
      "בגדים": 7003,
      "אמו": 7004,
      "אישום": 7005,
      "ילדי": 7006,
      "האמית": 7007,
      "##וסטר": 7008,
      "##ארי": 7009,
      "באוק": 7010,
      "##לאי": 7011,
      "העצמאות": 7012,
      "ניקוי": 7013,
      "סיד": 7014,
      "סכום": 7015,
      "ההר": 7016,
      "##וכיח": 7017,
      "הנוכחי": 7018,
      "מרדכי": 7019,
      "במד": 7020,
      "##נטר": 7021,
      "##ועד": 7022,
      "קטע": 7023,
      "##כאון": 7024,
      "מגלה": 7025,
      "##ביו": 7026,
      "ne": 7027,
      "תאו": 7028,
      "עומדים": 7029,
      "כספי": 7030,
      "ובל": 7031,
      "נהדר": 7032,
      "##ונם": 7033,
      "הבד": 7034,
      "עורכי": 7035,
      "שליטה": 7036,
      "אסת": 7037,
      "בגן": 7038,
      "הצוות": 7039,
      "מנצ": 7040,
      "##ארץ": 7041,
      "השלטון": 7042,
      "פתרונות": 7043,
      "מיכאל": 7044,
      "שינויים": 7045,
      "הגיוני": 7046,
      "הגעתי": 7047,
      "מועצת": 7048,
      "##ידום": 7049,
      "לזכות": 7050,
      "אמש": 7051,
      "במועד": 7052,
      "בנה": 7053,
      "סוד": 7054,
      "##מירה": 7055,
      "##sh": 7056,
      "יחסים": 7057,
      "עתה": 7058,
      "שהכל": 7059,
      "שניות": 7060,
      "##ולל": 7061,
      "##ind": 7062,
      "מענה": 7063,
      "אמריקה": 7064,
      "להראות": 7065,
      "מחוז": 7066,
      "להט": 7067,
      "האפשרות": 7068,
      "בארצות": 7069,
      "עברית": 7070,
      "השונות": 7071,
      "מאו": 7072,
      "ילדות": 7073,
      "תות": 7074,
      "האישי": 7075,
      "##רגן": 7076,
      "##משי": 7077,
      "שתהיה": 7078,
      "חות": 7079,
      "##משו": 7080,
      "ליהנות": 7081,
      "##לללל": 7082,
      "תלמיד": 7083,
      "ההיסטוריה": 7084,
      "קריאה": 7085,
      "מוצלח": 7086,
      "רציני": 7087,
      "עזרה": 7088,
      "סח": 7089,
      "זע": 7090,
      "הוח": 7091,
      "לבח": 7092,
      "אחרונות": 7093,
      "מאזן": 7094,
      "##מודדות": 7095,
      "400": 7096,
      "לחג": 7097,
      "להכניס": 7098,
      "הפעולה": 7099,
      "בסוריה": 7100,
      "הרגל": 7101,
      "ישן": 7102,
      "בחור": 7103,
      "בשבילי": 7104,
      "קמ": 7105,
      "##כרח": 7106,
      "ממת": 7107,
      "שמר": 7108,
      "התמונות": 7109,
      "רווח": 7110,
      "##קפה": 7111,
      "##ריכת": 7112,
      "ונג": 7113,
      "מוסר": 7114,
      "נתניה": 7115,
      "במר": 7116,
      "הטור": 7117,
      "קשים": 7118,
      "מרצ": 7119,
      "מודיע": 7120,
      "רט": 7121,
      "##דיא": 7122,
      "55": 7123,
      "חוזרים": 7124,
      "שחש": 7125,
      "מקורות": 7126,
      "##למה": 7127,
      "עלות": 7128,
      "no": 7129,
      "שאול": 7130,
      "חיפוש": 7131,
      "##וערת": 7132,
      "##בתו": 7133,
      "ברורה": 7134,
      "כמוך": 7135,
      "##יצה": 7136,
      "בקה": 7137,
      "קס": 7138,
      "שעש": 7139,
      "##פקים": 7140,
      "אלימות": 7141,
      "##ass": 7142,
      "##יפוי": 7143,
      "תראו": 7144,
      "שכת": 7145,
      "בנא": 7146,
      "##ווו": 7147,
      "##מוני": 7148,
      "הבדל": 7149,
      "מנות": 7150,
      "הציוץ": 7151,
      "בחוק": 7152,
      "##כא": 7153,
      "ספצי": 7154,
      "##נסיבות": 7155,
      "עצמית": 7156,
      "מפה": 7157,
      "אבנים": 7158,
      "מבנים": 7159,
      "##לד": 7160,
      "##לחת": 7161,
      "מכתב": 7162,
      "וצי": 7163,
      "פורסם": 7164,
      "הלבן": 7165,
      "ההסכם": 7166,
      "הדירה": 7167,
      "##תייחס": 7168,
      "שעתיים": 7169,
      "ולמה": 7170,
      "ברצ": 7171,
      "המקור": 7172,
      "חשש": 7173,
      "ויס": 7174,
      "##ель": 7175,
      "ברכה": 7176,
      "מנהי": 7177,
      "הבסיס": 7178,
      "לתקן": 7179,
      "מסביר": 7180,
      "net": 7181,
      "ממשיכים": 7182,
      "תחושה": 7183,
      "נכתב": 7184,
      "בוז": 7185,
      "עצם": 7186,
      "הצלחה": 7187,
      "יסוד": 7188,
      "נפגעים": 7189,
      "מחיי": 7190,
      "##ביס": 7191,
      "##ובלת": 7192,
      "לקיים": 7193,
      "המחשב": 7194,
      "##מצאים": 7195,
      "##ולין": 7196,
      "ביש": 7197,
      "##טרנטי": 7198,
      "לאר": 7199,
      "המבנה": 7200,
      "הביא": 7201,
      "נותר": 7202,
      "##נדל": 7203,
      "##כולות": 7204,
      "הוראות": 7205,
      "העיניים": 7206,
      "##פקה": 7207,
      "שמים": 7208,
      "המדינות": 7209,
      "תביעה": 7210,
      "המשמעות": 7211,
      "מסמכים": 7212,
      "##לאת": 7213,
      "חדרים": 7214,
      "הבלתי": 7215,
      "2007": 7216,
      "הפכה": 7217,
      "בשקט": 7218,
      "גודל": 7219,
      "שניהם": 7220,
      "לאף": 7221,
      "עברה": 7222,
      "##ви": 7223,
      "המלח": 7224,
      "##oun": 7225,
      "המלצות": 7226,
      "##ופט": 7227,
      "השירים": 7228,
      "העיתונ": 7229,
      "מסוגל": 7230,
      "##םםם": 7231,
      "##כלס": 7232,
      "דול": 7233,
      "ושה": 7234,
      "מחבלים": 7235,
      "משטרה": 7236,
      "במל": 7237,
      "בעצמו": 7238,
      "החרדים": 7239,
      "##סטיק": 7240,
      "פיי": 7241,
      "החדשים": 7242,
      "מקב": 7243,
      "הלאה": 7244,
      "##ייקט": 7245,
      "לנה": 7246,
      "לרשות": 7247,
      "מציאות": 7248,
      "מנהיג": 7249,
      "##ייפון": 7250,
      "##19": 7251,
      "הית": 7252,
      "שרוצה": 7253,
      "אשמח": 7254,
      "לבטל": 7255,
      "בתהליך": 7256,
      "##טינג": 7257,
      "2004": 7258,
      "הכולל": 7259,
      "אדרי": 7260,
      "הסבר": 7261,
      "רשתות": 7262,
      "##דיון": 7263,
      "להתג": 7264,
      "##ליפ": 7265,
      "מאמר": 7266,
      "בוו": 7267,
      "##ييل": 7268,
      "מעניי": 7269,
      "פרסמתי": 7270,
      "מוציא": 7271,
      "##for": 7272,
      "שומע": 7273,
      "בהרבה": 7274,
      "רשימת": 7275,
      "##געו": 7276,
      "אזרחים": 7277,
      "תנועת": 7278,
      "פעיל": 7279,
      "נחל": 7280,
      "##ook": 7281,
      "עבורכם": 7282,
      "כניסה": 7283,
      "пр": 7284,
      "##גידי": 7285,
      "הפלסטינים": 7286,
      "אן": 7287,
      "חברתי": 7288,
      "בראיון": 7289,
      "##ome": 7290,
      "##שוואה": 7291,
      "און": 7292,
      "הפסי": 7293,
      "##30": 7294,
      "##גינים": 7295,
      "##ווירה": 7296,
      "וכש": 7297,
      "news": 7298,
      "למג": 7299,
      "##בלה": 7300,
      "מפתח": 7301,
      "הכוונה": 7302,
      "מהג": 7303,
      "מיכל": 7304,
      "##ואין": 7305,
      "גבול": 7306,
      "אמאלה": 7307,
      "פרחים": 7308,
      "כץ": 7309,
      "נפל": 7310,
      "הנפש": 7311,
      "קשות": 7312,
      "הצעיר": 7313,
      "##בירו": 7314,
      "##לכת": 7315,
      "##ect": 7316,
      "קוס": 7317,
      "הדעת": 7318,
      "לתע": 7319,
      "במט": 7320,
      "איו": 7321,
      "למכור": 7322,
      "דוק": 7323,
      "75": 7324,
      "##זציה": 7325,
      "ריצוף": 7326,
      "לרח": 7327,
      "בלח": 7328,
      "החדר": 7329,
      "##יימו": 7330,
      "לשון": 7331,
      "##קוד": 7332,
      "העבר": 7333,
      "נתפס": 7334,
      "פרטיים": 7335,
      "התפקיד": 7336,
      "לפרטים": 7337,
      "##ציאה": 7338,
      "אבות": 7339,
      "לסגור": 7340,
      "מותו": 7341,
      "שפה": 7342,
      "החלטת": 7343,
      "העש": 7344,
      "##טוף": 7345,
      "##22": 7346,
      "רדיו": 7347,
      "אתן": 7348,
      "הלכתי": 7349,
      "חסי": 7350,
      "טען": 7351,
      "##קתי": 7352,
      "##ובדה": 7353,
      "הקרקע": 7354,
      "עדכון": 7355,
      "התוצאה": 7356,
      "המרכזית": 7357,
      "הודיע": 7358,
      "מכפר": 7359,
      "ואתם": 7360,
      "שעוד": 7361,
      "ונה": 7362,
      "הדם": 7363,
      "##16": 7364,
      "תראה": 7365,
      "מנע": 7366,
      "קיבלו": 7367,
      "למדינה": 7368,
      "קיש": 7369,
      "במזרח": 7370,
      "עלייה": 7371,
      "בכמה": 7372,
      "האמריקאי": 7373,
      "החג": 7374,
      "לסרט": 7375,
      "עפ": 7376,
      "מסוימים": 7377,
      "קידום": 7378,
      "פוליטי": 7379,
      "##פיץ": 7380,
      "ונס": 7381,
      "65": 7382,
      "##למי": 7383,
      "שלפני": 7384,
      "נוכל": 7385,
      "היחסים": 7386,
      "מומחה": 7387,
      "החומר": 7388,
      "זול": 7389,
      "ההוא": 7390,
      "ופי": 7391,
      "דרכ": 7392,
      "בכביש": 7393,
      "לפרס": 7394,
      "ולמ": 7395,
      "בראשית": 7396,
      "מצליחה": 7397,
      "ap": 7398,
      "הסמ": 7399,
      "לנהל": 7400,
      "##14": 7401,
      "הבינלאומי": 7402,
      "יוז": 7403,
      "לעד": 7404,
      "מחירים": 7405,
      "מגדל": 7406,
      "ולד": 7407,
      "קצב": 7408,
      "מחבל": 7409,
      "בחזרה": 7410,
      "טלוויזיה": 7411,
      "סבתא": 7412,
      "##חילה": 7413,
      "דלק": 7414,
      "ישיבה": 7415,
      "120": 7416,
      "אימון": 7417,
      "נעצר": 7418,
      "אלומיניום": 7419,
      "בכר": 7420,
      "##ph": 7421,
      "חנה": 7422,
      "##17": 7423,
      "ארד": 7424,
      "בשבילך": 7425,
      "תוספת": 7426,
      "הקומ": 7427,
      "ניצחון": 7428,
      "מוכנים": 7429,
      "ייעוץ": 7430,
      "לדוגמה": 7431,
      "בראשון": 7432,
      "##سرا": 7433,
      "השעה": 7434,
      "##שרו": 7435,
      "החלטות": 7436,
      "##ייף": 7437,
      "חקירה": 7438,
      "ממס": 7439,
      "המוכ": 7440,
      "ונק": 7441,
      "האצ": 7442,
      "##ld": 7443,
      "tra": 7444,
      "פסיכול": 7445,
      "מקרים": 7446,
      "עוברים": 7447,
      "הפק": 7448,
      "בנג": 7449,
      "רשמי": 7450,
      "##נציאל": 7451,
      "טענה": 7452,
      "בדיקות": 7453,
      "פסיכ": 7454,
      "בדיקת": 7455,
      "מחס": 7456,
      "המבקשת": 7457,
      "טו": 7458,
      "אוניברסי": 7459,
      "לפתח": 7460,
      "מית": 7461,
      "צוח": 7462,
      "ברחובות": 7463,
      "הכניסה": 7464,
      "המוסד": 7465,
      "הקרב": 7466,
      "ולג": 7467,
      "בתמונה": 7468,
      "כוכב": 7469,
      "מאפשרת": 7470,
      "ממח": 7471,
      "לעיל": 7472,
      "##פוט": 7473,
      "אדי": 7474,
      "מערב": 7475,
      "אנגלית": 7476,
      "כוללת": 7477,
      "##ווט": 7478,
      "אופניים": 7479,
      "מידה": 7480,
      "האלבום": 7481,
      "זוכה": 7482,
      "##חינה": 7483,
      "המאפשר": 7484,
      "זכוכית": 7485,
      "אזרחי": 7486,
      "##❤❤": 7487,
      "😂😂😂": 7488,
      "העין": 7489,
      "##ייה": 7490,
      "להצביע": 7491,
      "חוויה": 7492,
      "##מנטים": 7493,
      "המודר": 7494,
      "גע": 7495,
      "בטעות": 7496,
      "אמונה": 7497,
      "יולי": 7498,
      "אפשרויות": 7499,
      "גבוהים": 7500,
      "למטה": 7501,
      "לכי": 7502,
      "מעוד": 7503,
      "im": 7504,
      "מתוכ": 7505,
      "נבחרת": 7506,
      "##יעת": 7507,
      "##וונות": 7508,
      "לבכות": 7509,
      "אחותי": 7510,
      "וכבר": 7511,
      "לענות": 7512,
      "##ריאות": 7513,
      "##יינות": 7514,
      "##ומק": 7515,
      "في": 7516,
      "שיט": 7517,
      "להיע": 7518,
      "צמ": 7519,
      "בהג": 7520,
      "מקבלת": 7521,
      "##קטור": 7522,
      "לדרך": 7523,
      "ציבורית": 7524,
      "##פריט": 7525,
      "דיגי": 7526,
      "טיי": 7527,
      "2006": 7528,
      "הבנות": 7529,
      "פועלים": 7530,
      "##גדים": 7531,
      "##נצח": 7532,
      "קיום": 7533,
      "איכותי": 7534,
      "מדהימה": 7535,
      "##ופק": 7536,
      "וזו": 7537,
      "לפרו": 7538,
      "רות": 7539,
      "איד": 7540,
      "לקדם": 7541,
      "הדלת": 7542,
      "חיבור": 7543,
      "נקודת": 7544,
      "ההשק": 7545,
      "סובל": 7546,
      "##רכיב": 7547,
      "התהליך": 7548,
      "חוזה": 7549,
      "משפטי": 7550,
      "הבול": 7551,
      "איננו": 7552,
      "מהו": 7553,
      "הטוויטר": 7554,
      "לרא": 7555,
      "הפרס": 7556,
      "נתק": 7557,
      "מודר": 7558,
      "בתים": 7559,
      "##לאים": 7560,
      "בתקשורת": 7561,
      "נדמה": 7562,
      "עצבים": 7563,
      "כפרה": 7564,
      "תחושת": 7565,
      "במאה": 7566,
      "הוציא": 7567,
      "עזר": 7568,
      "##כירים": 7569,
      "##se": 7570,
      "##טייל": 7571,
      "השטח": 7572,
      "##וזן": 7573,
      "שהול": 7574,
      "זרים": 7575,
      "##חקיר": 7576,
      "הנסיעה": 7577,
      "אחראי": 7578,
      "##טסאפ": 7579,
      "##תתת": 7580,
      "##וריות": 7581,
      "לשיר": 7582,
      "התחלתי": 7583,
      "בבת": 7584,
      "שראיתי": 7585,
      "##קנה": 7586,
      "פשוטה": 7587,
      "בסגנון": 7588,
      "טיסה": 7589,
      "##ية": 7590,
      "חני": 7591,
      "מרבית": 7592,
      "עשתה": 7593,
      "##سراييل": 7594,
      "לאו": 7595,
      "הפוך": 7596,
      "המדע": 7597,
      "דוב": 7598,
      "עוזר": 7599,
      "##ויח": 7600,
      "נשמה": 7601,
      "גנ": 7602,
      "##ite": 7603,
      "זאב": 7604,
      "דובר": 7605,
      "הון": 7606,
      "תן": 7607,
      "אשה": 7608,
      "תלו": 7609,
      "התלמידים": 7610,
      "שחי": 7611,
      "מתכוון": 7612,
      "##פלי": 7613,
      "46": 7614,
      "##גוש": 7615,
      "ברית": 7616,
      "מוכנה": 7617,
      "ולצ": 7618,
      "בנייה": 7619,
      "לחכות": 7620,
      "שולחן": 7621,
      "הידי": 7622,
      "הודו": 7623,
      "לשכת": 7624,
      "סגל": 7625,
      "מזרחי": 7626,
      "הקשה": 7627,
      "האחרים": 7628,
      "di": 7629,
      "אוג": 7630,
      "מפתיע": 7631,
      "השפעה": 7632,
      "מעש": 7633,
      "היסטוריה": 7634,
      "לייצר": 7635,
      "##ובס": 7636,
      "מאמינים": 7637,
      "по": 7638,
      "הגא": 7639,
      "בניין": 7640,
      "בסט": 7641,
      "להרח": 7642,
      "##לינג": 7643,
      "בדיקה": 7644,
      "אנרגיה": 7645,
      "ומר": 7646,
      "##uuuuuuuu": 7647,
      "מבקשת": 7648,
      "חשובים": 7649,
      "##cc": 7650,
      "##יבוק": 7651,
      "הוצאת": 7652,
      "##בדו": 7653,
      "הבת": 7654,
      "הלקוחות": 7655,
      "תמורת": 7656,
      "פירות": 7657,
      "עומר": 7658,
      "גוש": 7659,
      "מסכי": 7660,
      "עיתון": 7661,
      "נבחר": 7662,
      "ברשות": 7663,
      "ma": 7664,
      "דורש": 7665,
      "רוני": 7666,
      "הטלוויזיה": 7667,
      "חלקי": 7668,
      "##ובלי": 7669,
      "השא": 7670,
      "להצטרף": 7671,
      "##ביד": 7672,
      "תקציב": 7673,
      "התפתחות": 7674,
      "בקיצור": 7675,
      "והנ": 7676,
      "##סטרו": 7677,
      "לחדר": 7678,
      "מימון": 7679,
      "פלסטינים": 7680,
      "ישת": 7681,
      "בפרק": 7682,
      "וטי": 7683,
      "מכון": 7684,
      "קיצוני": 7685,
      "סיפורים": 7686,
      "ורא": 7687,
      "נקודה": 7688,
      "גאה": 7689,
      "נפתלי": 7690,
      "שהק": 7691,
      "וחלק": 7692,
      "למדתי": 7693,
      "רד": 7694,
      "רוע": 7695,
      "טענות": 7696,
      "חנות": 7697,
      "שיחק": 7698,
      "זור": 7699,
      "מושלמת": 7700,
      "מכה": 7701,
      "מחפשת": 7702,
      "##צרות": 7703,
      "חח": 7704,
      "קיבלה": 7705,
      "##ביאו": 7706,
      "דיר": 7707,
      "##בריו": 7708,
      "איסור": 7709,
      "להרוג": 7710,
      "גני": 7711,
      "##ודשים": 7712,
      "עדות": 7713,
      "##פעמים": 7714,
      "##ומדים": 7715,
      "שפור": 7716,
      "##מיקה": 7717,
      "הקטנה": 7718,
      "##כונית": 7719,
      "היפה": 7720,
      "וטוב": 7721,
      "לרדת": 7722,
      "ציבורי": 7723,
      "##ue": 7724,
      "##ial": 7725,
      "##מורים": 7726,
      "כשהיא": 7727,
      "##ניקים": 7728,
      "רוצ": 7729,
      "##25": 7730,
      "ברכב": 7731,
      "החלטתי": 7732,
      "אמרת": 7733,
      "החודש": 7734,
      "נול": 7735,
      "לשתף": 7736,
      "##נציה": 7737,
      "מציעה": 7738,
      "##יקום": 7739,
      "מופיע": 7740,
      "קיץ": 7741,
      "תמר": 7742,
      "##ופעות": 7743,
      "אשדוד": 7744,
      "##בתם": 7745,
      "לרב": 7746,
      "כלכלית": 7747,
      "הודעות": 7748,
      "##בנית": 7749,
      "##מיחה": 7750,
      "חזן": 7751,
      "ותש": 7752,
      "##וריאה": 7753,
      "להזכיר": 7754,
      "המונ": 7755,
      "לקרי": 7756,
      "נושאים": 7757,
      "בכדור": 7758,
      "שלטון": 7759,
      "בשיתוף": 7760,
      "##ly": 7761,
      "עידן": 7762,
      "וללא": 7763,
      "##ные": 7764,
      "##מעת": 7765,
      "הקונ": 7766,
      "##לחו": 7767,
      "##כבה": 7768,
      "בהק": 7769,
      "החיפוש": 7770,
      "השניה": 7771,
      "יוצרים": 7772,
      "ואבי": 7773,
      "מסוימת": 7774,
      "הצבע": 7775,
      "הזר": 7776,
      "גיבור": 7777,
      "##וגת": 7778,
      "##צאים": 7779,
      "המועד": 7780,
      "הפרויקט": 7781,
      "ציל": 7782,
      "מחלי": 7783,
      "wor": 7784,
      "דמוקר": 7785,
      "##ורן": 7786,
      "##בוב": 7787,
      "להודות": 7788,
      "בשב": 7789,
      "##זורים": 7790,
      "לנג": 7791,
      "לומדים": 7792,
      "ניסה": 7793,
      "סוכר": 7794,
      "ww": 7795,
      "ידיים": 7796,
      "בינואר": 7797,
      "אינן": 7798,
      "מבני": 7799,
      "למשך": 7800,
      "לצייץ": 7801,
      "העברת": 7802,
      "החוף": 7803,
      "לעין": 7804,
      "מחזור": 7805,
      "##בעו": 7806,
      "##דע": 7807,
      "תוס": 7808,
      "בחינם": 7809,
      "##אזל": 7810,
      "תוק": 7811,
      "##ותרות": 7812,
      "not": 7813,
      "הקו": 7814,
      "id": 7815,
      "והכ": 7816,
      "הישראלים": 7817,
      "דאעש": 7818,
      "##צרה": 7819,
      "לדר": 7820,
      "חכמים": 7821,
      "##בירים": 7822,
      "המשפטי": 7823,
      "##רגונים": 7824,
      "שידור": 7825,
      "זקן": 7826,
      "בשום": 7827,
      "נמוכה": 7828,
      "אטרק": 7829,
      "מחול": 7830,
      "עולים": 7831,
      "ואחר": 7832,
      "במילים": 7833,
      "##כסוך": 7834,
      "##גיון": 7835,
      "##מטכ": 7836,
      "הפול": 7837,
      "הות": 7838,
      "אמצעי": 7839,
      "שדרות": 7840,
      "##יונית": 7841,
      "##io": 7842,
      "מעוצ": 7843,
      "##ek": 7844,
      "אנא": 7845,
      "ופת": 7846,
      "הכה": 7847,
      "הנחה": 7848,
      "מהמש": 7849,
      "##טחת": 7850,
      "##כללה": 7851,
      "מועדון": 7852,
      "קצרה": 7853,
      "בהצ": 7854,
      "##מפרט": 7855,
      "לדאוג": 7856,
      "מתקד": 7857,
      "מכשיר": 7858,
      "נרד": 7859,
      "##אמה": 7860,
      "##זיל": 7861,
      "##ריו": 7862,
      "49": 7863,
      "##ופיה": 7864,
      "איתנו": 7865,
      "המוצרים": 7866,
      "ברכות": 7867,
      "פיס": 7868,
      "לסיים": 7869,
      "לעזוב": 7870,
      "תשומת": 7871,
      "פוליטית": 7872,
      "##יז": 7873,
      "ביטול": 7874,
      "##ние": 7875,
      "מהיום": 7876,
      "בצבא": 7877,
      "כתבתי": 7878,
      "##בנו": 7879,
      "בקבוק": 7880,
      "##מותו": 7881,
      "החוצה": 7882,
      "##זול": 7883,
      "המקומית": 7884,
      "עשיר": 7885,
      "אחריו": 7886,
      "סיני": 7887,
      "טיח": 7888,
      "תכנון": 7889,
      "##ure": 7890,
      "שהרי": 7891,
      "בצבע": 7892,
      "##כלות": 7893,
      "עילית": 7894,
      "לוב": 7895,
      "להתייחס": 7896,
      "בהיסטוריה": 7897,
      "##13": 7898,
      "##בחר": 7899,
      "לרגל": 7900,
      "פיד": 7901,
      "נציג": 7902,
      "כחול": 7903,
      "##ביט": 7904,
      "יעלה": 7905,
      "לוקחת": 7906,
      "הגיש": 7907,
      "צבאי": 7908,
      "להציע": 7909,
      "זכתה": 7910,
      "זרי": 7911,
      "גילה": 7912,
      "בכוח": 7913,
      "בריט": 7914,
      "שפי": 7915,
      "תפק": 7916,
      "##יסטים": 7917,
      "חורף": 7918,
      "ריא": 7919,
      "מתכוו": 7920,
      "הארי": 7921,
      "שתת": 7922,
      "התכנית": 7923,
      "##חרור": 7924,
      "##תיחה": 7925,
      "##פלת": 7926,
      "החורף": 7927,
      "החייל": 7928,
      "תושב": 7929,
      "מרוב": 7930,
      "ישירה": 7931,
      "קיצ": 7932,
      "##גמר": 7933,
      "הציבורית": 7934,
      "למים": 7935,
      "וזהו": 7936,
      "##דס": 7937,
      "בכיתה": 7938,
      "##עק": 7939,
      "##לקות": 7940,
      "##port": 7941,
      "##נלי": 7942,
      "מאמן": 7943,
      "לחברת": 7944,
      "רחל": 7945,
      "בקיץ": 7946,
      "##צועת": 7947,
      "בספטמבר": 7948,
      "##ברט": 7949,
      "אמון": 7950,
      "##ro": 7951,
      "עופר": 7952,
      "שפר": 7953,
      "אמיר": 7954,
      "מונה": 7955,
      "קובע": 7956,
      "שהכי": 7957,
      "ירידה": 7958,
      "1d": 7959,
      "יקרים": 7960,
      "המשפטים": 7961,
      "ההש": 7962,
      "אפל": 7963,
      "אמורה": 7964,
      "כשהם": 7965,
      "##ליחים": 7966,
      "גילוי": 7967,
      "47": 7968,
      "שמב": 7969,
      "##ביץ": 7970,
      "פרג": 7971,
      "משותף": 7972,
      "השפה": 7973,
      "חוף": 7974,
      "ציוצים": 7975,
      "עשית": 7976,
      "דוח": 7977,
      "##סיבה": 7978,
      "גובה": 7979,
      "מסחר": 7980,
      "##ווין": 7981,
      "בפור": 7982,
      "הספרים": 7983,
      "תוכניות": 7984,
      "המתח": 7985,
      "שכתב": 7986,
      "מהכ": 7987,
      "##פורמה": 7988,
      "הגדולות": 7989,
      "##ופיע": 7990,
      "##וגית": 7991,
      "מקד": 7992,
      "לשמש": 7993,
      "אורך": 7994,
      "##טיקאים": 7995,
      "##ופלים": 7996,
      "לזהות": 7997,
      "שטויות": 7998,
      "##וכנות": 7999,
      "##וגוסט": 8000,
      "##18": 8001,
      "קולות": 8002,
      "##וניברסיטה": 8003,
      "התכוו": 8004,
      "##גנו": 8005,
      "לבחון": 8006,
      "זיו": 8007,
      "להוכיח": 8008,
      "##בנות": 8009,
      "ההי": 8010,
      "##are": 8011,
      "סימנתי": 8012,
      "##אטרון": 8013,
      "אחות": 8014,
      "האדמה": 8015,
      "מרה": 8016,
      "הכלכלה": 8017,
      "##טוט": 8018,
      "שתע": 8019,
      "למז": 8020,
      "העירייה": 8021,
      "חמור": 8022,
      "ניקיון": 8023,
      "לפרסם": 8024,
      "##זמה": 8025,
      "זכר": 8026,
      "עמדה": 8027,
      "##פיו": 8028,
      "רבע": 8029,
      "חמו": 8030,
      "בראשות": 8031,
      "המקורי": 8032,
      "יקבל": 8033,
      "יהדות": 8034,
      "נותנת": 8035,
      "57": 8036,
      "הצבאי": 8037,
      "לגור": 8038,
      "אדיר": 8039,
      "הפכו": 8040,
      "מודעות": 8041,
      "##כותי": 8042,
      "##בירות": 8043,
      "##ve": 8044,
      "##וגן": 8045,
      "##ךךךך": 8046,
      "פית": 8047,
      "במלון": 8048,
      "##ינתי": 8049,
      "לימודים": 8050,
      "משני": 8051,
      "באוניברסיטת": 8052,
      "אלוף": 8053,
      "הרפואי": 8054,
      "##יוך": 8055,
      "שנקרא": 8056,
      "פינת": 8057,
      "שליי": 8058,
      "יעזור": 8059,
      "ותק": 8060,
      "##מתם": 8061,
      "בטור": 8062,
      "2005": 8063,
      "האפשר": 8064,
      "##עתה": 8065,
      "כנס": 8066,
      "איכס": 8067,
      "האחד": 8068,
      "ומתן": 8069,
      "למב": 8070,
      "שנכנס": 8071,
      "פש": 8072,
      "שעושה": 8073,
      "##ובלים": 8074,
      "גבולות": 8075,
      "יעבור": 8076,
      "וקר": 8077,
      "הבחירה": 8078,
      "##ילחם": 8079,
      "השיטה": 8080,
      "באפריל": 8081,
      "מטבח": 8082,
      "יוק": 8083,
      "##פלה": 8084,
      "אהיה": 8085,
      "off": 8086,
      "##man": 8087,
      "##וסקת": 8088,
      "שקרה": 8089,
      "ובכלל": 8090,
      "האיס": 8091,
      "ההסת": 8092,
      "עיקר": 8093,
      "ab": 8094,
      "##ом": 8095,
      "##גרו": 8096,
      "חט": 8097,
      "##לימות": 8098,
      "תלמידים": 8099,
      "למשרד": 8100,
      "שאומרים": 8101,
      "שאולי": 8102,
      "נמש": 8103,
      "דיין": 8104,
      "##וצע": 8105,
      "הזכויות": 8106,
      "השיער": 8107,
      "מקרי": 8108,
      "הילדה": 8109,
      "##יפורים": 8110,
      "בסבי": 8111,
      "לילד": 8112,
      "חיוך": 8113,
      "במים": 8114,
      "הוז": 8115,
      "##תף": 8116,
      "##צועה": 8117,
      "53": 8118,
      "אופי": 8119,
      "##יצות": 8120,
      "##וגו": 8121,
      "תשל": 8122,
      "##ושב": 8123,
      "רוד": 8124,
      "זוכרת": 8125,
      "העתיד": 8126,
      "לסט": 8127,
      "להשקיע": 8128,
      "##למנט": 8129,
      "##מקד": 8130,
      "מובן": 8131,
      "דעות": 8132,
      "מהירה": 8133,
      "יוא": 8134,
      "##ופשה": 8135,
      "##סוקה": 8136,
      "##ממה": 8137,
      "חשד": 8138,
      "מציג": 8139,
      "סרטן": 8140,
      "פינוי": 8141,
      "שאינה": 8142,
      "בנובמבר": 8143,
      "##תייש": 8144,
      "מאסר": 8145,
      "##קון": 8146,
      "החס": 8147,
      "מתגע": 8148,
      "##ва": 8149,
      "ללקוחות": 8150,
      "אלבום": 8151,
      "טק": 8152,
      "##ואת": 8153,
      "והיו": 8154,
      "##от": 8155,
      "פארק": 8156,
      "הזכות": 8157,
      "ספרות": 8158,
      "הגבוה": 8159,
      "##פיר": 8160,
      "השניים": 8161,
      "דתי": 8162,
      "לשפר": 8163,
      "לירושלים": 8164,
      "קונה": 8165,
      "ובלי": 8166,
      "עמדת": 8167,
      "מוחמד": 8168,
      "הקדוש": 8169,
      "מניח": 8170,
      "##רגשות": 8171,
      "נוף": 8172,
      "חלקים": 8173,
      "##😩😩": 8174,
      "##ומנים": 8175,
      "##אאאא": 8176,
      "##פוני": 8177,
      "גיר": 8178,
      "עובדות": 8179,
      "תגידו": 8180,
      "מספרים": 8181,
      "אחרון": 8182,
      "##קעין": 8183,
      "##יינה": 8184,
      "##וצאת": 8185,
      "sc": 8186,
      "ביוני": 8187,
      "##ננת": 8188,
      "עוסק": 8189,
      "##ען": 8190,
      "עיתונאי": 8191,
      "נפרד": 8192,
      "הוצאות": 8193,
      "##כמים": 8194,
      "בשיעור": 8195,
      "הפועלים": 8196,
      "כמי": 8197,
      "עיתונאים": 8198,
      "הלאומית": 8199,
      "##גריה": 8200,
      "##פסה": 8201,
      "הכלכלי": 8202,
      "והז": 8203,
      "היכן": 8204,
      "your": 8205,
      "בצרפת": 8206,
      "תאי": 8207,
      "הצליחו": 8208,
      "בפרט": 8209,
      "##שינו": 8210,
      "52": 8211,
      "##מלית": 8212,
      "במוש": 8213,
      "כו": 8214,
      "##פכה": 8215,
      "לרצ": 8216,
      "בתוכנית": 8217,
      "##מודי": 8218,
      "יעל": 8219,
      "www": 8220,
      "משפחתו": 8221,
      "##איות": 8222,
      "##חשבות": 8223,
      "##מיו": 8224,
      "##ליא": 8225,
      "מטה": 8226,
      "נבח": 8227,
      "##ורש": 8228,
      "להימנע": 8229,
      "##חחח": 8230,
      "ובג": 8231,
      "תפס": 8232,
      "##ליכי": 8233,
      "נוק": 8234,
      "##טין": 8235,
      "מחזיק": 8236,
      "שיס": 8237,
      "שיהיו": 8238,
      "מתנות": 8239,
      "הגבול": 8240,
      "פרטית": 8241,
      "ורצ": 8242,
      "נמסר": 8243,
      "שקיבל": 8244,
      "##פוק": 8245,
      "תגובות": 8246,
      "בהרצ": 8247,
      "ביולי": 8248,
      "בחום": 8249,
      "##יקס": 8250,
      "פורים": 8251,
      "יוצר": 8252,
      "זוהר": 8253,
      "##ודיעין": 8254,
      "צמח": 8255,
      "בקבוצה": 8256,
      "תוקף": 8257,
      "למלא": 8258,
      "בוע": 8259,
      "אנד": 8260,
      "לחס": 8261,
      "##ומרון": 8262,
      "לכמה": 8263,
      "מפגש": 8264,
      "מאחור": 8265,
      "##טיביות": 8266,
      "##חתן": 8267,
      "לאירועים": 8268,
      "##נתם": 8269,
      "מהלך": 8270,
      "והט": 8271,
      "אורח": 8272,
      "מצבי": 8273,
      "הבריטי": 8274,
      "הבין": 8275,
      "פיצה": 8276,
      "העתיקה": 8277,
      "מלונות": 8278,
      "##וחי": 8279,
      "כשל": 8280,
      "##ment": 8281,
      "מתג": 8282,
      "##ان": 8283,
      "הזהב": 8284,
      "150": 8285,
      "במלחמת": 8286,
      "במדינת": 8287,
      "המאבק": 8288,
      "הלוח": 8289,
      "בתום": 8290,
      "54": 8291,
      "##יסר": 8292,
      "להעניק": 8293,
      "1dil": 8294,
      "השחקנים": 8295,
      "שמתי": 8296,
      "והאי": 8297,
      "הענק": 8298,
      "המושלם": 8299,
      "עייפה": 8300,
      "##ילנד": 8301,
      "##יבא": 8302,
      "##מהות": 8303,
      "תחנת": 8304,
      "גדל": 8305,
      "מחשבות": 8306,
      "##בטיה": 8307,
      "הנשי": 8308,
      "מנהלת": 8309,
      "##סקנה": 8310,
      "בקרה": 8311,
      "סין": 8312,
      "מאשימה": 8313,
      "הדיו": 8314,
      "ביס": 8315,
      "בשתי": 8316,
      "מסגרות": 8317,
      "יגאל": 8318,
      "חחחחחחחחחחחחח": 8319,
      "ישיבת": 8320,
      "בעזה": 8321,
      "she": 8322,
      "בהכרח": 8323,
      "##ליהם": 8324,
      "ינו": 8325,
      "הכפר": 8326,
      "ופשוט": 8327,
      "לפל": 8328,
      "אחיו": 8329,
      "מעדיף": 8330,
      "האה": 8331,
      "מיותר": 8332,
      "חלקם": 8333,
      "גלעד": 8334,
      "ככ": 8335,
      "בפרי": 8336,
      "סיבות": 8337,
      "מספק": 8338,
      "67": 8339,
      "אפריקה": 8340,
      "##יטים": 8341,
      "אסי": 8342,
      "קם": 8343,
      "##80": 8344,
      "לשנה": 8345,
      "צוע": 8346,
      "##נדס": 8347,
      "##בדות": 8348,
      "וחי": 8349,
      "הפרסום": 8350,
      "this": 8351,
      "מגורים": 8352,
      "דרכו": 8353,
      "עובדה": 8354,
      "from": 8355,
      "##פתחו": 8356,
      "##צלונה": 8357,
      "ולפי": 8358,
      "הפרטי": 8359,
      "לגיל": 8360,
      "מיות": 8361,
      "נהרגו": 8362,
      "לתאר": 8363,
      "אוז": 8364,
      "להשאיר": 8365,
      "סגור": 8366,
      "##וגע": 8367,
      "כספים": 8368,
      "##ks": 8369,
      "הפיצ": 8370,
      "לצערי": 8371,
      "אסף": 8372,
      "השלישית": 8373,
      "כשיש": 8374,
      "דעתו": 8375,
      "##אתי": 8376,
      "בטקס": 8377,
      "נגרות": 8378,
      "ואחד": 8379,
      "שרות": 8380,
      "מסביב": 8381,
      "##erus": 8382,
      "התרו": 8383,
      "המוזיקה": 8384,
      "לגר": 8385,
      "המקרים": 8386,
      "שוש": 8387,
      "קראו": 8388,
      "נפתח": 8389,
      "נוט": 8390,
      "לביצוע": 8391,
      "נייר": 8392,
      "בחירה": 8393,
      "מקסים": 8394,
      "הקרובים": 8395,
      "בהקשר": 8396,
      "לכת": 8397,
      "##מוק": 8398,
      "התה": 8399,
      "##אלת": 8400,
      "הנתבעים": 8401,
      "##90": 8402,
      "שבכל": 8403,
      "החקירה": 8404,
      "תורת": 8405,
      "תובע": 8406,
      "##אתה": 8407,
      "מטור": 8408,
      "מוביל": 8409,
      "לעי": 8410,
      "באוקטובר": 8411,
      "##ארו": 8412,
      "##ילומים": 8413,
      "דופן": 8414,
      "זיכרון": 8415,
      "המתאי": 8416,
      "סינ": 8417,
      "העברי": 8418,
      "##בטא": 8419,
      "תיעוד": 8420,
      "מטי": 8421,
      "תאורה": 8422,
      "נהר": 8423,
      "##פואה": 8424,
      "זהות": 8425,
      "ויאמר": 8426,
      "וכמו": 8427,
      "##ברתית": 8428,
      "##חלוקת": 8429,
      "##קבל": 8430,
      "לרכב": 8431,
      "##ove": 8432,
      "חדרי": 8433,
      "שעושים": 8434,
      "##ילר": 8435,
      "all": 8436,
      "יורד": 8437,
      "סך": 8438,
      "##va": 8439,
      "רצוי": 8440,
      "##פתור": 8441,
      "מטרה": 8442,
      "להסתכל": 8443,
      "ביע": 8444,
      "##ניתן": 8445,
      "יט": 8446,
      "משתנה": 8447,
      "קשי": 8448,
      "שפע": 8449,
      "אולמרט": 8450,
      "מבצעים": 8451,
      "לעם": 8452,
      "רגש": 8453,
      "למט": 8454,
      "בפרשת": 8455,
      "שהד": 8456,
      "##uc": 8457,
      "##ועלת": 8458,
      "##גוריה": 8459,
      "הרוב": 8460,
      "##ריל": 8461,
      "ממליץ": 8462,
      "##נטון": 8463,
      "##בורת": 8464,
      "השו": 8465,
      "##דמן": 8466,
      "בכירים": 8467,
      "בחברת": 8468,
      "שאח": 8469,
      "64": 8470,
      "יחי": 8471,
      "רגשות": 8472,
      "בקטע": 8473,
      "המזון": 8474,
      "ראיון": 8475,
      "שירי": 8476,
      "לאת": 8477,
      "תרופות": 8478,
      "נחת": 8479,
      "##וסה": 8480,
      "מטורף": 8481,
      "##שימות": 8482,
      "הקרובה": 8483,
      "מתרג": 8484,
      "הייתם": 8485,
      "##בס": 8486,
      "עמות": 8487,
      "רון": 8488,
      "גבס": 8489,
      "ובנו": 8490,
      "##יפו": 8491,
      "##000": 8492,
      "רעיונות": 8493,
      "עוברת": 8494,
      "מרקר": 8495,
      "##כזב": 8496,
      "פרנק": 8497,
      "וכול": 8498,
      "חולון": 8499,
      "שאחרי": 8500,
      "שהיתה": 8501,
      "נכסים": 8502,
      "מהחיים": 8503,
      "שהר": 8504,
      "בווא": 8505,
      "חודשיים": 8506,
      "כבית": 8507,
      "אינטר": 8508,
      "לול": 8509,
      "##פריה": 8510,
      "תחז": 8511,
      "##נגטון": 8512,
      "כיו": 8513,
      "שלושת": 8514,
      "החיילים": 8515,
      "המאשימה": 8516,
      "באופ": 8517,
      "מצוות": 8518,
      "נוסעים": 8519,
      "שנאה": 8520,
      "במגוון": 8521,
      "##ци": 8522,
      "##שתמש": 8523,
      "הורה": 8524,
      "התחבורה": 8525,
      "לקוח": 8526,
      "יצאה": 8527,
      "הבאות": 8528,
      "לשנת": 8529,
      "שהג": 8530,
      "הישיבה": 8531,
      "פשי": 8532,
      "##אבים": 8533,
      "מלכת": 8534,
      "הציוני": 8535,
      "56": 8536,
      "##פרק": 8537,
      "##סקו": 8538,
      "לקל": 8539,
      "למעט": 8540,
      "הוי": 8541,
      "טכני": 8542,
      "קולנוע": 8543,
      "##תיב": 8544,
      "רעב": 8545,
      "נראים": 8546,
      "אהוד": 8547,
      "##רופ": 8548,
      "בהתחלה": 8549,
      "דגל": 8550,
      "זצ": 8551,
      "שתיקה": 8552,
      "אחים": 8553,
      "ההון": 8554,
      "החרדי": 8555,
      "מיס": 8556,
      "שבס": 8557,
      "מחשבה": 8558,
      "כרטיסים": 8559,
      "מפק": 8560,
      "##מטי": 8561,
      "##כוב": 8562,
      "на": 8563,
      "מגי": 8564,
      "לשחרר": 8565,
      "העיתון": 8566,
      "לעצמך": 8567,
      "סמי": 8568,
      "המשיב": 8569,
      "##כורה": 8570,
      "תום": 8571,
      "המדה": 8572,
      "##ומא": 8573,
      "שלט": 8574,
      "נהדרת": 8575,
      "מחלקת": 8576,
      "##רכיבים": 8577,
      "פותח": 8578,
      "ערו": 8579,
      "שוטרים": 8580,
      "##חלף": 8581,
      "הידע": 8582,
      "##דיט": 8583,
      "הפה": 8584,
      "רישיון": 8585,
      "לשתות": 8586,
      "רמי": 8587,
      "##ויד": 8588,
      "בפס": 8589,
      "##קרר": 8590,
      "המוות": 8591,
      "לממשלה": 8592,
      "##ציר": 8593,
      "לעזאזל": 8594,
      "##כית": 8595,
      "192": 8596,
      "משבר": 8597,
      "##בלי": 8598,
      "המסך": 8599,
      "הבנייה": 8600,
      "מאבק": 8601,
      "יהושע": 8602,
      "סטודנטים": 8603,
      "אוקיי": 8604,
      "להציל": 8605,
      "##יקות": 8606,
      "להשתתף": 8607,
      "מחקרים": 8608,
      "קוריאה": 8609,
      "הוסיף": 8610,
      "תחומי": 8611,
      "bon": 8612,
      "94": 8613,
      "שנאמר": 8614,
      "לגל": 8615,
      "לפלי": 8616,
      "פירוש": 8617,
      "מספרת": 8618,
      "מכירות": 8619,
      "מפעל": 8620,
      "הספק": 8621,
      "הפתרון": 8622,
      "##ענות": 8623,
      "יואב": 8624,
      "תגידי": 8625,
      "כרי": 8626,
      "מעצבן": 8627,
      "כלכליסט": 8628,
      "הכלים": 8629,
      "##תיבה": 8630,
      "המקדש": 8631,
      "שיפור": 8632,
      "##ילדים": 8633,
      "אופנה": 8634,
      "##ראיין": 8635,
      "בהע": 8636,
      "גמ": 8637,
      "הראל": 8638,
      "##וסיה": 8639,
      "פלסטיני": 8640,
      "הקודמת": 8641,
      "זמני": 8642,
      "אנדר": 8643,
      "הרצון": 8644,
      "##בדים": 8645,
      "נדרש": 8646,
      "##ол": 8647,
      "ההור": 8648,
      "נוצר": 8649,
      "משוב": 8650,
      "לדוגמא": 8651,
      "ser": 8652,
      "במציאות": 8653,
      "צמוד": 8654,
      "אתרי": 8655,
      "בסמוך": 8656,
      "מזע": 8657,
      "##fa": 8658,
      "הכביש": 8659,
      "הכוחות": 8660,
      "##יוץ": 8661,
      "##yat": 8662,
      "והרי": 8663,
      "דבריו": 8664,
      "לנסוע": 8665,
      "ביצע": 8666,
      "וינ": 8667,
      "ינג": 8668,
      "##נפל": 8669,
      "##פסור": 8670,
      "ולו": 8671,
      "שנראה": 8672,
      "##דיף": 8673,
      "##בנים": 8674,
      "לדיון": 8675,
      "אנוש": 8676,
      "וחש": 8677,
      "חייהם": 8678,
      "לקרות": 8679,
      "מפחיד": 8680,
      "ההע": 8681,
      "שימש": 8682,
      "##ייייי": 8683,
      "לאיר": 8684,
      "באילת": 8685,
      "מחכים": 8686,
      "בקשת": 8687,
      "בשפה": 8688,
      "ברצינות": 8689,
      "עלו": 8690,
      "שומן": 8691,
      "##כיל": 8692,
      "שופט": 8693,
      "man": 8694,
      "מופת": 8695,
      "מכם": 8696,
      "ברזל": 8697,
      "##פורים": 8698,
      "הביטוי": 8699,
      "המסחר": 8700,
      "העיקרי": 8701,
      "בכנס": 8702,
      "לטובה": 8703,
      "קשת": 8704,
      "חנוכה": 8705,
      "אהרון": 8706,
      "משלי": 8707,
      "עונש": 8708,
      "##קיפה": 8709,
      "##הם": 8710,
      "ram": 8711,
      "שעדיין": 8712,
      "זוע": 8713,
      "כיתה": 8714,
      "עצמא": 8715,
      "dr": 8716,
      "מוסדות": 8717,
      "ליק": 8718,
      "שבאמת": 8719,
      "##לקים": 8720,
      "##פליקציה": 8721,
      "מסוכן": 8722,
      "##מיע": 8723,
      "##ווטו": 8724,
      "עשרים": 8725,
      "מרים": 8726,
      "באוגוסט": 8727,
      "המשתמש": 8728,
      "##old": 8729,
      "ללמד": 8730,
      "המלאה": 8731,
      "ספור": 8732,
      "לדין": 8733,
      "##ild": 8734,
      "קמפיין": 8735,
      "ייצור": 8736,
      "##alem": 8737,
      "##וצרת": 8738,
      "##נקה": 8739,
      "לצומת": 8740,
      "מחנה": 8741,
      "בטיחות": 8742,
      "##פסים": 8743,
      "הראשונות": 8744,
      "צודקת": 8745,
      "##ها": 8746,
      "שנמצא": 8747,
      "חשוד": 8748,
      "בוודאי": 8749,
      "##וללות": 8750,
      "##פנו": 8751,
      "##גרס": 8752,
      "בוחרים": 8753,
      "לעקוב": 8754,
      "##קיף": 8755,
      "הצר": 8756,
      "##דמה": 8757,
      "מגעיל": 8758,
      "בכניסה": 8759,
      "##ber": 8760,
      "צבעים": 8761,
      "הרמב": 8762,
      "##וננת": 8763,
      "ובכן": 8764,
      "מבטי": 8765,
      "מעניינת": 8766,
      "לבנון": 8767,
      "##פצ": 8768,
      "##ime": 8769,
      "##גדול": 8770,
      "עשויה": 8771,
      "מתאימה": 8772,
      "##ראל": 8773,
      "##פרץ": 8774,
      "##טיבה": 8775,
      "fl": 8776,
      "הפוסט": 8777,
      "ידעו": 8778,
      "שעשה": 8779,
      "אדל": 8780,
      "אורג": 8781,
      "##וננים": 8782,
      "לסמוך": 8783,
      "יצירה": 8784,
      "מאוח": 8785,
      "##לטו": 8786,
      "בפיגוע": 8787,
      "##טש": 8788,
      "העמק": 8789,
      "הנוכח": 8790,
      "##וננות": 8791,
      "נפגע": 8792,
      "הכללי": 8793,
      "רלוונטי": 8794,
      "##רונית": 8795,
      "##ברך": 8796,
      "##טורים": 8797,
      "ידו": 8798,
      "יתכן": 8799,
      "אלכוהול": 8800,
      "החתונה": 8801,
      "##יעוט": 8802,
      "סדרה": 8803,
      "##כירת": 8804,
      "תומך": 8805,
      "ביוב": 8806,
      "##te": 8807,
      "להחליט": 8808,
      "להכנס": 8809,
      "סמים": 8810,
      "למערכת": 8811,
      "מושחת": 8812,
      "##דושה": 8813,
      "הרגשתי": 8814,
      "##פגש": 8815,
      "##ממ": 8816,
      "חזקים": 8817,
      "זהה": 8818,
      "85": 8819,
      "לכר": 8820,
      "עלתה": 8821,
      "##מוביץ": 8822,
      "צייצ": 8823,
      "לאבד": 8824,
      "עוקבים": 8825,
      "טועה": 8826,
      "קישור": 8827,
      "העסקים": 8828,
      "עדין": 8829,
      "##ליג": 8830,
      "המערבי": 8831,
      "משותפת": 8832,
      "##ילון": 8833,
      "שייך": 8834,
      "##חנה": 8835,
      "ולכל": 8836,
      "##חילו": 8837,
      "jerus": 8838,
      "##אז": 8839,
      "הכנסה": 8840,
      "מציעים": 8841,
      "##ולן": 8842,
      "##ес": 8843,
      "הקרן": 8844,
      "למוות": 8845,
      "גת": 8846,
      "ניכר": 8847,
      "טוענים": 8848,
      "מרגישים": 8849,
      "תיאור": 8850,
      "למר": 8851,
      "בריטניה": 8852,
      "97": 8853,
      "שתמיד": 8854,
      "הזיכרון": 8855,
      "מעצב": 8856,
      "##ix": 8857,
      "האק": 8858,
      "דעה": 8859,
      "lik": 8860,
      "מרן": 8861,
      "זוכרים": 8862,
      "כאחד": 8863,
      "במשטרה": 8864,
      "הגבוהה": 8865,
      "הבמה": 8866,
      "החליטה": 8867,
      "יחיד": 8868,
      "ושר": 8869,
      "עפר": 8870,
      "רעה": 8871,
      "הכתבה": 8872,
      "רשאי": 8873,
      "##99": 8874,
      "בנס": 8875,
      "הגשת": 8876,
      "##מבל": 8877,
      "כים": 8878,
      "נתון": 8879,
      "הדרי": 8880,
      "בכלא": 8881,
      "##זכר": 8882,
      "סה": 8883,
      "לארו": 8884,
      "##israel": 8885,
      "ללח": 8886,
      "מאמרים": 8887,
      "היות": 8888,
      "##ам": 8889,
      "התוכ": 8890,
      "נל": 8891,
      "##tm": 8892,
      "ייחודי": 8893,
      "חירום": 8894,
      "ותע": 8895,
      "חתול": 8896,
      "בשדה": 8897,
      "בדצמבר": 8898,
      "הפלסטינית": 8899,
      "מניות": 8900,
      "##טיוב": 8901,
      "בפעילות": 8902,
      "כללית": 8903,
      "החיס": 8904,
      "##כתבו": 8905,
      "מעוניינים": 8906,
      "##טוק": 8907,
      "קווי": 8908,
      "ובמק": 8909,
      "הפופול": 8910,
      "קוראת": 8911,
      "זוגות": 8912,
      "##שששש": 8913,
      "הגענו": 8914,
      "##זיון": 8915,
      "עצום": 8916,
      "##ون": 8917,
      "נפטר": 8918,
      "לטל": 8919,
      "##זבאללה": 8920,
      "הרופא": 8921,
      "שכי": 8922,
      "אישיות": 8923,
      "##גלו": 8924,
      "שעשו": 8925,
      "טורקיה": 8926,
      "קרובות": 8927,
      "##יימה": 8928,
      "סמו": 8929,
      "מיזוג": 8930,
      "من": 8931,
      "לזמן": 8932,
      "הליך": 8933,
      "לדבריו": 8934,
      "##pt": 8935,
      "##דיקים": 8936,
      "יוג": 8937,
      "##חדש": 8938,
      "##ודעת": 8939,
      "בעיניים": 8940,
      "##טלר": 8941,
      "עיו": 8942,
      "תגיע": 8943,
      "הקלי": 8944,
      "##סאות": 8945,
      "98": 8946,
      "נגר": 8947,
      "הוו": 8948,
      "חלון": 8949,
      "הרגשה": 8950,
      "##na": 8951,
      "jerusalem": 8952,
      "יפות": 8953,
      "##ink": 8954,
      "שואה": 8955,
      "##רדית": 8956,
      "ag": 8957,
      "איצ": 8958,
      "נשבעת": 8959,
      "אליעזר": 8960,
      "זבל": 8961,
      "נדיר": 8962,
      "כלשהי": 8963,
      "##אתילן": 8964,
      "עכ": 8965,
      "השולחן": 8966,
      "בתנאי": 8967,
      "כיפור": 8968,
      "ריבלין": 8969,
      "##iryat": 8970,
      "##60": 8971,
      "אשקלון": 8972,
      "לוחות": 8973,
      "##ara": 8974,
      "זמנית": 8975,
      "ציר": 8976,
      "הקודש": 8977,
      "מטרים": 8978,
      "נוסע": 8979,
      "בחשד": 8980,
      "##בעון": 8981,
      "לבעלי": 8982,
      "חוט": 8983,
      "good": 8984,
      "זית": 8985,
      "תינוק": 8986,
      "##ברתי": 8987,
      "שהמש": 8988,
      "במשפט": 8989,
      "במיטה": 8990,
      "הבניין": 8991,
      "##גרי": 8992,
      "ממשיכה": 8993,
      "ישנו": 8994,
      "בליגה": 8995,
      "##שנים": 8996,
      "מופע": 8997,
      "עכו": 8998,
      "לקהל": 8999,
      "בתחת": 9000,
      "##קא": 9001,
      "המעבר": 9002,
      "##כנסו": 9003,
      "התושבים": 9004,
      "הכיבוש": 9005,
      "תמצאו": 9006,
      "המשחקים": 9007,
      "תמונת": 9008,
      "איבד": 9009,
      "##ערבות": 9010,
      "##רתם": 9011,
      "פוס": 9012,
      "יוקר": 9013,
      "בדיון": 9014,
      "באיזור": 9015,
      "בגרמניה": 9016,
      "המאמר": 9017,
      "ספרו": 9018,
      "##pe": 9019,
      "דגם": 9020,
      "תעשי": 9021,
      "הכדורגל": 9022,
      "סוגים": 9023,
      "הקטנים": 9024,
      "פונה": 9025,
      "אמית": 9026,
      "##ich": 9027,
      "הקשור": 9028,
      "הפיק": 9029,
      "הלהקה": 9030,
      "הצעה": 9031,
      "שוטר": 9032,
      "הנדל": 9033,
      "##למו": 9034,
      "הנכ": 9035,
      "##זז": 9036,
      "##מיין": 9037,
      "במז": 9038,
      "הקיר": 9039,
      "##זהר": 9040,
      "לעוד": 9041,
      "מלווה": 9042,
      "רוכ": 9043,
      "מתנד": 9044,
      "מלכה": 9045,
      "להבטיח": 9046,
      "##נחלים": 9047,
      "נדל": 9048,
      "שקרא": 9049,
      "העות": 9050,
      "לשינוי": 9051,
      "קמה": 9052,
      "משו": 9053,
      "להוביל": 9054,
      "אזורי": 9055,
      "גבעת": 9056,
      "כשע": 9057,
      "מכות": 9058,
      "##קבלה": 9059,
      "באהבה": 9060,
      "בקט": 9061,
      "ארגוני": 9062,
      "הצעות": 9063,
      "##לס": 9064,
      "##pr": 9065,
      "והמו": 9066,
      "הירי": 9067,
      "פלוס": 9068,
      "אוניברסיטת": 9069,
      "מרחב": 9070,
      "נהיגה": 9071,
      "pe": 9072,
      "##ומרת": 9073,
      "נוז": 9074,
      "האחריות": 9075,
      "לממש": 9076,
      "מוגבל": 9077,
      "שורה": 9078,
      "##נוני": 9079,
      "תחילה": 9080,
      "מודיעין": 9081,
      "יתרון": 9082,
      "##יאה": 9083,
      "לבנים": 9084,
      "מעצר": 9085,
      "כוכ": 9086,
      "פסטיבל": 9087,
      "##חזק": 9088,
      "סיכון": 9089,
      "הערבית": 9090,
      "לחודש": 9091,
      "מטרות": 9092,
      "להתאים": 9093,
      "בלונדון": 9094,
      "מחלות": 9095,
      "סיוע": 9096,
      "איילון": 9097,
      "ולהע": 9098,
      "ובק": 9099,
      "הגולן": 9100,
      "הרצליה": 9101,
      "מסיבת": 9102,
      "פנה": 9103,
      "##בייש": 9104,
      "שבהן": 9105,
      "במרץ": 9106,
      "sm": 9107,
      "מתגעגעת": 9108,
      "##ביעו": 9109,
      "בשבתו": 9110,
      "ותח": 9111,
      "גיוס": 9112,
      "בעונה": 9113,
      "הדו": 9114,
      "הבקשה": 9115,
      "##טייה": 9116,
      "לידה": 9117,
      "קונס": 9118,
      "אוגוסט": 9119,
      "למרכז": 9120,
      "ארז": 9121,
      "רמות": 9122,
      "יראה": 9123,
      "##דתי": 9124,
      "לוקחים": 9125,
      "מבקר": 9126,
      "נוסח": 9127,
      "הצטרפו": 9128,
      "המחירים": 9129,
      "מטוס": 9130,
      "הקפה": 9131,
      "##בילה": 9132,
      "היב": 9133,
      "מספקת": 9134,
      "בחצי": 9135,
      "##וליטיקה": 9136,
      "ניסיתי": 9137,
      "##מעלה": 9138,
      "תנ": 9139,
      "נפשי": 9140,
      "##פץ": 9141,
      "הגמר": 9142,
      "התנ": 9143,
      "##ודרת": 9144,
      "##ניתי": 9145,
      "מחלה": 9146,
      "רשמית": 9147,
      "בדומה": 9148,
      "##בתה": 9149,
      "רפואה": 9150,
      "אפק": 9151,
      "דחוף": 9152,
      "בצורת": 9153,
      "road": 9154,
      "תסת": 9155,
      "##גין": 9156,
      "מבחר": 9157,
      "לפיכך": 9158,
      "ותה": 9159,
      "נכנסת": 9160,
      "יניב": 9161,
      "חכמה": 9162,
      "באיכות": 9163,
      "סלי": 9164,
      "##מעו": 9165,
      "קלים": 9166,
      "הרוגים": 9167,
      "הונ": 9168,
      "האירועים": 9169,
      "קבלו": 9170,
      "התוצאות": 9171,
      "האירופי": 9172,
      "##וריית": 9173,
      "ומז": 9174,
      "דרוש": 9175,
      "פרא": 9176,
      "נכש": 9177,
      "##ניהן": 9178,
      "תומכים": 9179,
      "##ביק": 9180,
      "##ал": 9181,
      "המשנה": 9182,
      "זכאי": 9183,
      "##מינות": 9184,
      "ייק": 9185,
      "גידול": 9186,
      "לבק": 9187,
      "##ודדים": 9188,
      "הכותרת": 9189,
      "##דשות": 9190,
      "מסור": 9191,
      "להרוס": 9192,
      "##שיכו": 9193,
      "העיצוב": 9194,
      "##צתי": 9195,
      "##nam": 9196,
      "השיחה": 9197,
      "##וכות": 9198,
      "רמה": 9199,
      "אלפים": 9200,
      "תקף": 9201,
      "העולמי": 9202,
      "מעוניין": 9203,
      "ערים": 9204,
      "הגורם": 9205,
      "ליאור": 9206,
      "הדרו": 9207,
      "##פין": 9208,
      "הפיד": 9209,
      "##געים": 9210,
      "נגדו": 9211,
      "בסעיף": 9212,
      "שתק": 9213,
      "היקר": 9214,
      "jew": 9215,
      "מתאר": 9216,
      "דוגמה": 9217,
      "##ביי": 9218,
      "פרסם": 9219,
      "לרמת": 9220,
      "##סדות": 9221,
      "לערוך": 9222,
      "עבירות": 9223,
      "bo": 9224,
      "##osh": 9225,
      "רכש": 9226,
      "##חיית": 9227,
      "החברתית": 9228,
      "תוכנה": 9229,
      "מישראל": 9230,
      "אנט": 9231,
      "מכיל": 9232,
      "##מצם": 9233,
      "##ידך": 9234,
      "סטר": 9235,
      "ומט": 9236,
      "##מלצות": 9237,
      "בנתניה": 9238,
      "##חדות": 9239,
      "באוויר": 9240,
      "ההד": 9241,
      "ערי": 9242,
      "הזמנים": 9243,
      "ראית": 9244,
      "קיבוץ": 9245,
      "נסגר": 9246,
      "58": 9247,
      "הודיעה": 9248,
      "##ייבות": 9249,
      "הביקורת": 9250,
      "תחבורה": 9251,
      "חפץ": 9252,
      "מוחלט": 9253,
      "שעון": 9254,
      "והיום": 9255,
      "רחובות": 9256,
      "##נאביס": 9257,
      "מהות": 9258,
      "השע": 9259,
      "ספרד": 9260,
      "לרשת": 9261,
      "##דמנויות": 9262,
      "##40": 9263,
      "##ين": 9264,
      "הקבוע": 9265,
      "השקעות": 9266,
      "האדום": 9267,
      "##כוך": 9268,
      "ערה": 9269,
      "חיוב": 9270,
      "תיש": 9271,
      "##ction": 9272,
      "##סיקה": 9273,
      "לצלם": 9274,
      "בגובה": 9275,
      "נפגש": 9276,
      "ואר": 9277,
      "סיכום": 9278,
      "##we": 9279,
      "לצחוק": 9280,
      "##כללת": 9281,
      "##רגשה": 9282,
      "שלד": 9283,
      "##לקט": 9284,
      "##חתו": 9285,
      "שרוב": 9286,
      "המנהל": 9287,
      "הקצ": 9288,
      "דיל": 9289,
      "2003": 9290,
      "לתיק": 9291,
      "הקורס": 9292,
      "לפתור": 9293,
      "##ron": 9294,
      "הכספים": 9295,
      "המספר": 9296,
      "הצלחתי": 9297,
      "מקצועיים": 9298,
      "##לאם": 9299,
      "##ביעית": 9300,
      "להחזיק": 9301,
      "##וננו": 9302,
      "שפות": 9303,
      "הופכת": 9304,
      "שדי": 9305,
      "מסיבות": 9306,
      "שרים": 9307,
      "כוכבים": 9308,
      "##פלגות": 9309,
      "תלמידי": 9310,
      "##ts": 9311,
      "השינוי": 9312,
      "מצבו": 9313,
      "ברע": 9314,
      "להילחם": 9315,
      "##כנסות": 9316,
      "לגן": 9317,
      "מילוי": 9318,
      "באלוהים": 9319,
      "המטה": 9320,
      "מצאו": 9321,
      "ערכים": 9322,
      "##ניעת": 9323,
      "##טיביים": 9324,
      "##פאה": 9325,
      "פוגע": 9326,
      "ריה": 9327,
      "לחברות": 9328,
      "חסרי": 9329,
      "##ign": 9330,
      "יושבים": 9331,
      "רשימה": 9332,
      "הכלל": 9333,
      "ארוכות": 9334,
      "השחקן": 9335,
      "מיקום": 9336,
      "##וויץ": 9337,
      "מקומית": 9338,
      "ריט": 9339,
      "ואנו": 9340,
      "em": 9341,
      "שהוק": 9342,
      "##חינת": 9343,
      "##דרו": 9344,
      "##חלטות": 9345,
      "בעלה": 9346,
      "אשראי": 9347,
      "פופול": 9348,
      "##ail": 9349,
      "בפל": 9350,
      "כלבים": 9351,
      "לוודא": 9352,
      "שהגיעו": 9353,
      "##מוג": 9354,
      "ובד": 9355,
      "##דרכה": 9356,
      "לתקופה": 9357,
      "פינה": 9358,
      "הרווח": 9359,
      "בסדרה": 9360,
      "##ושבי": 9361,
      "ענקית": 9362,
      "##נסון": 9363,
      "להגיב": 9364,
      "##חשבה": 9365,
      "##סא": 9366,
      "##חשבו": 9367,
      "מדויק": 9368,
      "ואומר": 9369,
      "זל": 9370,
      "להמ": 9371,
      "האמנות": 9372,
      "##ang": 9373,
      "##ניר": 9374,
      "האמור": 9375,
      "הגבר": 9376,
      "החליטו": 9377,
      "וכדומה": 9378,
      "הסרטון": 9379,
      "העסקה": 9380,
      "##כירו": 9381,
      "הנכונה": 9382,
      "שתיים": 9383,
      "רז": 9384,
      "עייף": 9385,
      "מודע": 9386,
      "##שתתפות": 9387,
      "##נחלויות": 9388,
      "הקולנוע": 9389,
      "הבנה": 9390,
      "מצליחים": 9391,
      "דנה": 9392,
      "##נסיון": 9393,
      "תפקידו": 9394,
      "מסויי": 9395,
      "האחים": 9396,
      "המחנה": 9397,
      "גאון": 9398,
      "בטיפול": 9399,
      "מאמץ": 9400,
      "הטעם": 9401,
      "שבעה": 9402,
      "##oll": 9403,
      "כמוני": 9404,
      "לשלום": 9405,
      "כוע": 9406,
      "מתים": 9407,
      "להשפיע": 9408,
      "##יימות": 9409,
      "מרשים": 9410,
      "עייפות": 9411,
      "אהוב": 9412,
      "הטענה": 9413,
      "צרכ": 9414,
      "יצאתי": 9415,
      "מערי": 9416,
      "תעודת": 9417,
      "##מצים": 9418,
      "ילי": 9419,
      "חנויות": 9420,
      "עליהן": 9421,
      "קצין": 9422,
      "מאוהבת": 9423,
      "##פאים": 9424,
      "hd": 9425,
      "##מפריה": 9426,
      "אלקטרוני": 9427,
      "ייס": 9428,
      "מטרת": 9429,
      "##וראים": 9430,
      "ספיר": 9431,
      "בטרם": 9432,
      "דיור": 9433,
      "תושבים": 9434,
      "דינ": 9435,
      "##ישוב": 9436,
      "האומ": 9437,
      "האמריקאית": 9438,
      "דגש": 9439,
      "##ציבור": 9440,
      "צנרת": 9441,
      "##וזרים": 9442,
      "הפייסבוק": 9443,
      "מהכל": 9444,
      "77": 9445,
      "לאה": 9446,
      "##ps": 9447,
      "בקריית": 9448,
      "ממוש": 9449,
      "בחנות": 9450,
      "##בדוק": 9451,
      "האות": 9452,
      "הגיל": 9453,
      "##מיון": 9454,
      "מומחים": 9455,
      "נעימה": 9456,
      "עוף": 9457,
      "ומקצוע": 9458,
      "שלל": 9459,
      "הצפון": 9460,
      "##ולוגיים": 9461,
      "עצמנו": 9462,
      "הרשימה": 9463,
      "מדריך": 9464,
      "שאלתי": 9465,
      "לעסוק": 9466,
      "##פילה": 9467,
      "בנאדם": 9468,
      "בקרית": 9469,
      "עשויים": 9470,
      "##שאי": 9471,
      "הנדר": 9472,
      "משפטים": 9473,
      "ye": 9474,
      "##משה": 9475,
      "החשוב": 9476,
      "אא": 9477,
      "באות": 9478,
      "בזק": 9479,
      "בלשון": 9480,
      "שסי": 9481,
      "השינה": 9482,
      "שכחתי": 9483,
      "אמריקאי": 9484,
      "נוי": 9485,
      "בסביבה": 9486,
      "##דרגות": 9487,
      "##ba": 9488,
      "##פאת": 9489,
      "גופי": 9490,
      "מבטיח": 9491,
      "מסל": 9492,
      "יעיל": 9493,
      "לסבול": 9494,
      "##מליים": 9495,
      "להקת": 9496,
      "למידה": 9497,
      "קרים": 9498,
      "שאומר": 9499,
      "הפוליטית": 9500,
      "##חזר": 9501,
      "מסוכ": 9502,
      "המבוס": 9503,
      "גברי": 9504,
      "ביח": 9505,
      "לפק": 9506,
      "במוע": 9507,
      "מאושר": 9508,
      "##טק": 9509,
      "איננה": 9510,
      "הלימוד": 9511,
      "ברירה": 9512,
      "איטליה": 9513,
      "לרכי": 9514,
      "אוכלים": 9515,
      "ברדיו": 9516,
      "##סקות": 9517,
      "הגליל": 9518,
      "אכלתי": 9519,
      "הצעירים": 9520,
      "חולצה": 9521,
      "יציר": 9522,
      "##פגנה": 9523,
      "לפועל": 9524,
      "גבע": 9525,
      "##sp": 9526,
      "הרכי": 9527,
      "כור": 9528,
      "באורח": 9529,
      "לפרק": 9530,
      "קובי": 9531,
      "תעשו": 9532,
      "😂😂😂😂😂": 9533,
      "להעריך": 9534,
      "אחורה": 9535,
      "רכישת": 9536,
      "##זיות": 9537,
      "כניסת": 9538,
      "הליכה": 9539,
      "המסת": 9540,
      "האיחוד": 9541,
      "##ימים": 9542,
      "ben": 9543,
      "בעיתון": 9544,
      "הפיל": 9545,
      "נאשמים": 9546,
      "מערך": 9547,
      "##ار": 9548,
      "do": 9549,
      "בחירת": 9550,
      "היהדות": 9551,
      "הרגליים": 9552,
      "ערן": 9553,
      "##דיחה": 9554,
      "התגובה": 9555,
      "שווים": 9556,
      "אוהד": 9557,
      "החלל": 9558,
      "לייק": 9559,
      "שיטות": 9560,
      "##ירור": 9561,
      "##צרי": 9562,
      "דומים": 9563,
      "המסע": 9564,
      "הארו": 9565,
      "התינוק": 9566,
      "לעצמם": 9567,
      "התובעים": 9568,
      "##יסוק": 9569,
      "##de": 9570,
      "באחת": 9571,
      "מייל": 9572,
      "דמויות": 9573,
      "אדומים": 9574,
      "##בטחה": 9575,
      "צא": 9576,
      "ההודעה": 9577,
      "##ds": 9578,
      "האנטי": 9579,
      "יונה": 9580,
      "המשיבה": 9581,
      "בקושי": 9582,
      "באול": 9583,
      "##ונלד": 9584,
      "בשורה": 9585,
      "השעות": 9586,
      "נועד": 9587,
      "##בדת": 9588,
      "תוא": 9589,
      "קצי": 9590,
      "מגניב": 9591,
      "עסקי": 9592,
      "בתורה": 9593,
      "כשמ": 9594,
      "גיי": 9595,
      "##בהיר": 9596,
      "להמשך": 9597,
      "שהז": 9598,
      "##יקף": 9599,
      "היועץ": 9600,
      "##יתונים": 9601,
      "גג": 9602,
      "האנרגיה": 9603,
      "##ens": 9604,
      "בשידור": 9605,
      "נתנו": 9606,
      "התאונה": 9607,
      "השער": 9608,
      "בפברואר": 9609,
      "לכאן": 9610,
      "##לוח": 9611,
      "ומפ": 9612,
      "לשכנע": 9613,
      "מכונות": 9614,
      "##ед": 9615,
      "קטי": 9616,
      "כרטיסי": 9617,
      "ואינו": 9618,
      "עלולה": 9619,
      "##דורה": 9620,
      "ראשוני": 9621,
      "הפסקת": 9622,
      "באשדוד": 9623,
      "למתן": 9624,
      "גרעי": 9625,
      "חלונות": 9626,
      "מדד": 9627,
      "יחזור": 9628,
      "בתחומי": 9629,
      "הסע": 9630,
      "נענע": 9631,
      "מוכרים": 9632,
      "##זיאון": 9633,
      "הגברים": 9634,
      "ונפ": 9635,
      "מצויין": 9636,
      "##כלול": 9637,
      "רגעים": 9638,
      "תוצאה": 9639,
      "ושות": 9640,
      "נווה": 9641,
      "טיפים": 9642,
      "اسراييل": 9643,
      "בתחרות": 9644,
      "תמו": 9645,
      "לבת": 9646,
      "השכר": 9647,
      "באוטובוס": 9648,
      "ופע": 9649,
      "##אליק": 9650,
      "##ישון": 9651,
      "דתיים": 9652,
      "הביאו": 9653,
      "חופשה": 9654,
      "##סן": 9655,
      "חסרת": 9656,
      "כתובת": 9657,
      "לכנסת": 9658,
      "אונס": 9659,
      "הנהג": 9660,
      "##רוח": 9661,
      "בבניין": 9662,
      "ואה": 9663,
      "עמיד": 9664,
      "הממל": 9665,
      "המוג": 9666,
      "אגף": 9667,
      "למנה": 9668,
      "חמה": 9669,
      "##נאל": 9670,
      "מהצד": 9671,
      "##שמיות": 9672,
      "המיני": 9673,
      "המתאים": 9674,
      "החיל": 9675,
      "עצמאי": 9676,
      "ואפשר": 9677,
      "מגל": 9678,
      "##יקי": 9679,
      "מוצאים": 9680,
      "##ליית": 9681,
      "##ick": 9682,
      "##לקי": 9683,
      "##שיה": 9684,
      "##ינות": 9685,
      "בגדול": 9686,
      "66": 9687,
      "אכז": 9688,
      "יכולתי": 9689,
      "למכירה": 9690,
      "השאלות": 9691,
      "בינינו": 9692,
      "והכי": 9693,
      "תנאים": 9694,
      "לונדון": 9695,
      "דרג": 9696,
      "הדירות": 9697,
      "קונים": 9698,
      "פנו": 9699,
      "הוראה": 9700,
      "##פסות": 9701,
      "##רויות": 9702,
      "צעירה": 9703,
      "שבג": 9704,
      "הליגה": 9705,
      "##טאות": 9706,
      "##דיקות": 9707,
      "תאריך": 9708,
      "האנושי": 9709,
      "רחבי": 9710,
      "##ראק": 9711,
      "##וחרים": 9712,
      "בקצב": 9713,
      "זהבי": 9714,
      "##ous": 9715,
      "פרויקטים": 9716,
      "ביתו": 9717,
      "##פירה": 9718,
      "השראה": 9719,
      "מסוב": 9720,
      "מוטי": 9721,
      "מבחינתי": 9722,
      "שאסור": 9723,
      "##געגעתי": 9724,
      "התס": 9725,
      "משפחתי": 9726,
      "##לייה": 9727,
      "##abb": 9728,
      "פנ": 9729,
      "חחחחחחחח": 9730,
      "מעורב": 9731,
      "רחבה": 9732,
      "בשימוש": 9733,
      "לסדר": 9734,
      "הופכים": 9735,
      "לדון": 9736,
      "הפוט": 9737,
      "השירותים": 9738,
      "##קרון": 9739,
      "לחקור": 9740,
      "ערבית": 9741,
      "מבוסס": 9742,
      "פיו": 9743,
      "##ral": 9744,
      "##טחי": 9745,
      "הצליחה": 9746,
      "הפלא": 9747,
      "העובד": 9748,
      "מהירות": 9749,
      "המשיח": 9750,
      "הנג": 9751,
      "ונראה": 9752,
      "קריית": 9753,
      "המוקד": 9754,
      "סמס": 9755,
      "##ברון": 9756,
      "להשלים": 9757,
      "נגיד": 9758,
      "גוט": 9759,
      "מזו": 9760,
      "that": 9761,
      "בעין": 9762,
      "##יליסט": 9763,
      "עבירה": 9764,
      "גירוש": 9765,
      "ממתי": 9766,
      "מיה": 9767,
      "שיטה": 9768,
      "הידוע": 9769,
      "לפגוש": 9770,
      "במסע": 9771,
      "fb": 9772,
      "טעויות": 9773,
      "בעיצוב": 9774,
      "קטגוריה": 9775,
      "מבזק": 9776,
      "שרוצים": 9777,
      "##אנו": 9778,
      "להנ": 9779,
      "רץ": 9780,
      "במשק": 9781,
      "בחק": 9782,
      "רגילה": 9783,
      "##אתם": 9784,
      "לטר": 9785,
      "הרבים": 9786,
      "מרכזית": 9787,
      "שלק": 9788,
      "השגר": 9789,
      "חלל": 9790,
      "בארגון": 9791,
      "רמ": 9792,
      "פלילי": 9793,
      "u05e": 9794,
      "ויט": 9795,
      "כף": 9796,
      "שלייי": 9797,
      "רעננה": 9798,
      "לשוק": 9799,
      "הרביעי": 9800,
      "##גשים": 9801,
      "וכאשר": 9802,
      "הנוכחית": 9803,
      "דרור": 9804,
      "ומל": 9805,
      "des": 9806,
      "צבוע": 9807,
      "אמין": 9808,
      "תשכ": 9809,
      "ליב": 9810,
      "88": 9811,
      "ואחרים": 9812,
      "כרגיל": 9813,
      "אשכנזי": 9814,
      "נעליים": 9815,
      "לעסקים": 9816,
      "טיפה": 9817,
      "גזר": 9818,
      "##צהיר": 9819,
      "פופ": 9820,
      "##לינו": 9821,
      "##wa": 9822,
      "ונות": 9823,
      "והשי": 9824,
      "אומנות": 9825,
      "שהוג": 9826,
      "##יתת": 9827,
      "הכאב": 9828,
      "החשובים": 9829,
      "הנזק": 9830,
      "הרחב": 9831,
      "##פולים": 9832,
      "##פסיד": 9833,
      "שותף": 9834,
      "הסטודנטים": 9835,
      "חתונה": 9836,
      "##ולית": 9837,
      "ברוח": 9838,
      "חשק": 9839,
      "העמ": 9840,
      "ומשת": 9841,
      "##אתו": 9842,
      "עיצ": 9843,
      "התחרות": 9844,
      "המסורת": 9845,
      "68": 9846,
      "ובסוף": 9847,
      "משרדי": 9848,
      "וקי": 9849,
      "נשר": 9850,
      "##day": 9851,
      "נדב": 9852,
      "קניתי": 9853,
      "כפול": 9854,
      "סגנון": 9855,
      "בגודל": 9856,
      "מפרי": 9857,
      "##צאי": 9858,
      "##ידוד": 9859,
      "המשיך": 9860,
      "##ינת": 9861,
      "הכלב": 9862,
      "##שמי": 9863,
      "נוכח": 9864,
      "ראינו": 9865,
      "##ליפות": 9866,
      "אצלו": 9867,
      "פעילויות": 9868,
      "במדינות": 9869,
      "הבעיות": 9870,
      "ושירות": 9871,
      "סמכות": 9872,
      "המין": 9873,
      "היעד": 9874,
      "##ירן": 9875,
      "הבכיר": 9876,
      "בטלוויזיה": 9877,
      "יבנה": 9878,
      "##גועים": 9879,
      "תיאטרון": 9880,
      "##צלמה": 9881,
      "כתבי": 9882,
      "##ואיד": 9883,
      "בגוגל": 9884,
      "בעמוד": 9885,
      "הבנים": 9886,
      "בציבור": 9887,
      "בנושאים": 9888,
      "אסטרטג": 9889,
      "טווח": 9890,
      "כבן": 9891,
      "באג": 9892,
      "להורים": 9893,
      "נמל": 9894,
      "אחוזים": 9895,
      "מלמד": 9896,
      "שלג": 9897,
      "דעתי": 9898,
      "##בדיל": 9899,
      "אזריה": 9900,
      "##ריטניה": 9901,
      "59": 9902,
      "הזוי": 9903,
      "אלטרנטי": 9904,
      "התרח": 9905,
      "לבסוף": 9906,
      "במדבר": 9907,
      "שתד": 9908,
      "האזרחים": 9909,
      "עקיבא": 9910,
      "הרשמי": 9911,
      "האמיתית": 9912,
      "##גינה": 9913,
      "play": 9914,
      "בירה": 9915,
      "##נראה": 9916,
      "נסיון": 9917,
      "המשתת": 9918,
      "שלישית": 9919,
      "למלחמה": 9920,
      "##ויזיה": 9921,
      "af": 9922,
      "שחלק": 9923,
      "להפעיל": 9924,
      "הלידה": 9925,
      "בלעד": 9926,
      "אויר": 9927,
      "##קנות": 9928,
      "למועד": 9929,
      "דיסק": 9930,
      "##ריזה": 9931,
      "אופציה": 9932,
      "הכוללת": 9933,
      "התז": 9934,
      "השופטים": 9935,
      "ביתר": 9936,
      "xxx": 9937,
      "בתאו": 9938,
      "ולקבל": 9939,
      "נער": 9940,
      "שומעת": 9941,
      "חוקים": 9942,
      "מכונת": 9943,
      "מוזיק": 9944,
      "נהנה": 9945,
      "הרס": 9946,
      "##ופרים": 9947,
      "שופטים": 9948,
      "ממוק": 9949,
      "##ידר": 9950,
[...]
